
#define NNoutput &buffer0[512];

/* sram:4960, flash:43832 */
#define PEAK_MEM 4960
#define MODEL_SIZE 43832

static signed char buffer[4960];
static signed char *buffer0 = &buffer[0];
static int16_t *sbuf = (int16_t *)&buffer[4096];
static int16_t *kbuf = (int16_t *)&buffer[4744];
const int SBuffer_size = 648;
const int KBuffer_size = 216;

const unsigned char weight0[108] = {0x26, 0x2e, 0x12, 0x06, 0xed, 0xe9, 0xd0, 0xe3, 0xf3, 0x9a, 0x93, 0xc9, 0xff, 0xf6, 0x04, 0x71, 0x5c, 0x7f, 0xbb, 0xbd, 0xb7, 0xee, 0xe2, 0xd9, 0x3a, 0x4f, 0x58, 0x09, 0x19, 0x1c, 0xdc, 0x22, 0x17, 0xf3, 0x14, 0x1a, 0x1b, 0x44, 0x19, 0x58, 0x32, 0x2e, 0x43, 0x49, 0x7f, 0xdb, 0xf8, 0x1f, 0xea, 0xdf, 0x1d, 0x17, 0x21, 0x49, 0x1c, 0x11, 0x13, 0xc7, 0xea, 0xf3, 0x13, 0x09, 0x28, 0xd4, 0xed, 0x07, 0xc9, 0xe5, 0xe4, 0xf5, 0x18, 0xea, 0xd9, 0xe9, 0xce, 0xa5, 0x81, 0x85, 0xc4, 0xcb, 0xb9, 0x02, 0xe5, 0xaf, 0xfa, 0xeb, 0x04, 0x93, 0xf4, 0xf2, 0x31, 0x3c, 0x0e, 0xed, 0xbf, 0xe9, 0xae, 0x92, 0x81, 0xe8, 0x1e, 0x01, 0xeb, 0xe1, 0xab, 0xa6, 0x9c, 0x9c, };
const int32_t bias0[4] = {1145, -5939, 19276, 15494, };
const float scales0[4] = {0.0027613687007219004, 0.0012482420061055643, 0.0013861653968885058, 0.0008724693292087674, };
const int32_t shift0[4] = {-8, -9, -9, -10, };
const int32_t multiplier0[4] = {1518078498, 1372456600, 1524104972, 1918580345, };
const unsigned char CHWweight1[36] = {0x15, 0xcc, 0xda, 0x7f, 0x77, 0x7e, 0x55, 0x37, 0x2e, 0x14, 0x03, 0xe5, 0x6d, 0xe4, 0x70, 0x12, 0x81, 0x8c, 0x01, 0xfb, 0x04, 0xc1, 0x81, 0x92, 0xdf, 0xab, 0xf0, 0x40, 0x1c, 0x44, 0x22, 0xf7, 0x2b, 0x3e, 0xf5, 0x7f, };
const int32_t offsetBias1[4] = {61051, -4565, -47990, 51418, };
const int32_t offsetRBias1[4] = {0, 0, 0, 0, };
const float scales1[4] = {0.0033431909948173954, 0.01097581034642769, 0.00471892932359209, 0.0064191847542227135, };
const int32_t shift1[4] = {-8, -6, -7, -7, };
const int32_t multiplier1[4] = {1837938686, 1508503888, 1297129415, 1764492070, };
const unsigned char weight2[32] = {0xf9, 0xcb, 0x7f, 0x50, 0xc3, 0x81, 0xdc, 0xb2, 0x78, 0xdb, 0x7f, 0x41, 0x78, 0xdc, 0x7f, 0x69, 0xf2, 0x81, 0xac, 0x9a, 0x09, 0xbb, 0xb8, 0x7f, 0x81, 0xe5, 0x4d, 0x16, 0xa1, 0x1a, 0x81, 0x57, };
const int32_t bias2[8] = {-1822, 1598, -2007, -2690, 3113, 14, -381, 521, };
const float scales2[8] = {0.009574740213831702, 0.011761757943983736, 0.00883118205543272, 0.00780728504362308, 0.009071491525003533, 0.005638367974294895, 0.014251230159301591, 0.005066537094847388, };
const int32_t shift2[8] = {-6, -6, -6, -7, -6, -7, -6, -7, };
const int32_t multiplier2[8] = {1315942275, 1616523703, 1213748420, 2146050172, 1246776302, 1549862787, 1958674159, 1392679112, };
const unsigned char CHWweight3[72] = {0xe2, 0x0a, 0x35, 0x15, 0x77, 0x7f, 0x01, 0x67, 0x56, 0xf4, 0x12, 0x52, 0xeb, 0x1b, 0x7f, 0x00, 0x14, 0x62, 0xc1, 0xb1, 0x9e, 0xce, 0x04, 0xde, 0x7f, 0x7b, 0xcb, 0xfb, 0x21, 0x45, 0x09, 0x46, 0x7f, 0xff, 0x2f, 0x5b, 0x11, 0xda, 0xdb, 0x35, 0xc9, 0x81, 0x1b, 0xd7, 0x95, 0x4c, 0x0d, 0xf4, 0x29, 0xf5, 0xa1, 0x75, 0xfc, 0x81, 0x34, 0x59, 0xb0, 0x7f, 0x4c, 0x02, 0x15, 0x71, 0xf9, 0x59, 0x65, 0x7f, 0x29, 0x44, 0x49, 0xaf, 0x38, 0x47, };
const int32_t offsetBias3[8] = {62717, 41713, -13344, 56340, -35509, -309, 50082, 67740, };
const int32_t offsetRBias3[8] = {0, 0, 0, 0, 0, 0, 0, 0, };
const float scales3[8] = {0.0020839494211342545, 0.005621642028631041, 0.002119025150707414, 0.003015302051346039, 0.003238429779116324, 0.0053343692472390385, 0.0018456060171202486, 0.002447360863995098, };
const int32_t shift3[8] = {-8, -7, -8, -8, -8, -7, -9, -8, };
const int32_t multiplier3[8] = {1145663310, 1545265194, 1164946396, 1657679833, 1780345599, 1466300254, 2029265276, 1345450864, };
const unsigned char weight4[128] = {0x50, 0xff, 0xce, 0x70, 0x2e, 0x01, 0x81, 0xd5, 0x81, 0x57, 0xe0, 0x98, 0xa7, 0x34, 0x21, 0x32, 0x7f, 0xc7, 0xf3, 0x52, 0x74, 0x65, 0x1f, 0xd4, 0x91, 0xe4, 0xdc, 0x96, 0x7b, 0xfc, 0x81, 0x2f, 0xfb, 0xb7, 0xde, 0x7f, 0xfe, 0x37, 0xb5, 0xfc, 0x1a, 0x20, 0xfd, 0x54, 0x44, 0x14, 0x81, 0xf7, 0x7f, 0xf8, 0x6c, 0xec, 0xf4, 0x18, 0xc6, 0x4b, 0xbf, 0x8f, 0xe6, 0x49, 0x7f, 0x40, 0xac, 0x07, 0x1b, 0xec, 0x1b, 0x7f, 0xb1, 0x3b, 0x29, 0x3d, 0x81, 0xf2, 0x0b, 0x50, 0x5b, 0x2a, 0x6d, 0x48, 0x7f, 0xcc, 0x9d, 0xb4, 0x35, 0x1d, 0xe5, 0x07, 0x7f, 0x07, 0x36, 0x1a, 0x25, 0x0d, 0x35, 0x1b, 0xb2, 0x4a, 0x05, 0x72, 0x11, 0x1b, 0x15, 0x7f, 0x96, 0xc3, 0xa4, 0x7e, 0xaf, 0x51, 0x81, 0x4c, 0xc7, 0xbc, 0xaf, 0x7f, 0x18, 0x37, 0x16, 0xea, 0x96, 0xd8, 0xe8, 0x62, 0x06, 0x2e, 0x81, 0x11, };
const int32_t bias4[16] = {495, 195, -75, 876, 176, -126, -927, 50, -759, -927, 327, -532, -739, 649, 388, 384, };
const float scales4[16] = {0.0034856633759734793, 0.0024386034658921245, 0.0024894225834217938, 0.003030712700097811, 0.004789526064887283, 0.005707894603861232, 0.007548263059246422, 0.005053484854734373, 0.00464516212216115, 0.0059843653735130896, 0.0076219601327909324, 0.0041363162280101465, 0.008167999134284887, 0.003407062691169093, 0.00499981390287488, 0.004569216125860568, };
const int32_t shift4[16] = {-8, -8, -8, -8, -7, -7, -7, -7, -7, -7, -7, -7, -6, -8, -7, -7, };
const int32_t multiplier4[16] = {1916263706, 1340636433, 1368574538, 1666151927, 1316534900, 1568974122, 2074850751, 1389091340, 1276852442, 1644969828, 2095108448, 1136981947, 1122601253, 1873052523, 1374338381, 1255976565, };
const unsigned char weight5[256] = {0x40, 0x73, 0x5b, 0x50, 0x5a, 0xa9, 0x5a, 0x7f, 0x64, 0x12, 0xbd, 0x4b, 0xb6, 0x5e, 0x3d, 0xde, 0x08, 0xcd, 0xcb, 0xd5, 0x74, 0x13, 0x0d, 0x28, 0x1a, 0x34, 0xcf, 0x5c, 0xf0, 0xb6, 0x7f, 0xb4, 0x3e, 0x44, 0xe9, 0x96, 0x7f, 0x48, 0x05, 0x19, 0x07, 0xfd, 0x0e, 0x7a, 0x02, 0xeb, 0x0f, 0x2f, 0x61, 0xa5, 0x10, 0x81, 0x25, 0x3f, 0x0b, 0x6f, 0x24, 0xe1, 0xb9, 0xbb, 0xc0, 0x1a, 0x48, 0xc0, 0xbd, 0xf2, 0xcb, 0x7f, 0xc9, 0x42, 0xaa, 0xff, 0xd0, 0xb7, 0x11, 0xc1, 0x3a, 0x30, 0xf5, 0x52, 0xe0, 0xf3, 0x9d, 0x01, 0x8c, 0xf0, 0xbe, 0x0a, 0xe0, 0xf7, 0x3f, 0x81, 0xb6, 0xe0, 0xd8, 0x36, 0x7f, 0xf7, 0x73, 0xc6, 0x1c, 0x63, 0x18, 0x38, 0xb3, 0xe6, 0x33, 0xff, 0xb7, 0x55, 0x7b, 0x41, 0x42, 0xce, 0x1f, 0xae, 0x18, 0x1a, 0x60, 0x0c, 0xd0, 0xd8, 0x39, 0x7f, 0xcb, 0x2e, 0x19, 0x18, 0x7f, 0xb2, 0x2a, 0xdc, 0x00, 0x6c, 0x5b, 0xfc, 0xdd, 0xe2, 0x5c, 0x5f, 0xb0, 0x0a, 0x27, 0x22, 0x1f, 0xee, 0x54, 0xf6, 0x04, 0xb7, 0x28, 0xca, 0x47, 0x29, 0x74, 0x7f, 0xf8, 0xe8, 0xde, 0xe0, 0xfa, 0x06, 0x25, 0x6e, 0xcc, 0xf7, 0xb0, 0x9d, 0xee, 0x59, 0xf9, 0xb6, 0x31, 0x28, 0xd2, 0x81, 0x73, 0xb9, 0x6b, 0xaa, 0x20, 0x09, 0x7f, 0x18, 0x02, 0xd3, 0x26, 0x7a, 0xc2, 0x0e, 0x13, 0x1d, 0xfe, 0x19, 0x6b, 0xee, 0xd6, 0xd0, 0x2b, 0xd7, 0xff, 0x11, 0x75, 0x7f, 0xeb, 0xe1, 0xdd, 0x0a, 0x08, 0xfe, 0x23, 0x05, 0x60, 0x6d, 0xb3, 0x1b, 0xe2, 0x16, 0x22, 0x06, 0x81, 0x2d, 0x39, 0x21, 0x81, 0xf9, 0xe7, 0x42, 0xd7, 0xcb, 0x75, 0xd9, 0x00, 0xfe, 0xf1, 0xe9, 0x79, 0x04, 0xde, 0x25, 0x47, 0x09, 0x4d, 0xcf, 0x02, 0x49, 0x7f, 0xf5, 0x01, 0xcb, 0x01, 0x49, 0xaa, 0xfa, 0x41, 0x0b, };
const int32_t bias5[16] = {-867, 12, 54, 237, 216, 1860, -95, 34, 48, -66, 5546, 70, 37, -27, 494, -396, };
const float scales5[16] = {0.003972278652051921, 0.004993977535284542, 0.003708314589662578, 0.005432898609783253, 0.005099021972960514, 0.002974077304927747, 0.0030019769018140422, 0.00408862192339322, 0.003054947888976236, 0.004108775185976498, 0.0012073349656256463, 0.002888730365122717, 0.004718086630105052, 0.005617570606550312, 0.005183283473121691, 0.004020358830751327, };
const int32_t shift5[16] = {-7, -7, -8, -7, -7, -8, -8, -7, -8, -7, -9, -8, -7, -7, -7, -7, };
const int32_t multiplier5[16] = {1091891642, 1372734092, 2038667505, 1493383798, 1401608487, 1635016289, 1650354255, 1123871837, 1679475363, 1129411523, 1327478833, 1588096313, 1296897778, 1544146050, 1424770112, 1105107821, };
const unsigned char CHWweight6[144] = {0xca, 0xdc, 0xcc, 0xa0, 0x02, 0xb6, 0x91, 0x41, 0x81, 0xfd, 0x7f, 0xee, 0x05, 0x5b, 0xdf, 0x28, 0x44, 0xfd, 0x0d, 0x20, 0x0e, 0xad, 0x81, 0x00, 0x40, 0x5b, 0xea, 0x10, 0xe5, 0xf6, 0x7f, 0xba, 0xd1, 0x6b, 0x03, 0x5b, 0x04, 0xe5, 0xf1, 0xfe, 0xd9, 0xf8, 0x15, 0x30, 0x7f, 0x7f, 0x01, 0x10, 0x30, 0xd4, 0x05, 0x2c, 0xff, 0x31, 0xf5, 0xfb, 0x07, 0xfd, 0x1b, 0xcf, 0x38, 0x7f, 0x2a, 0xfc, 0x77, 0xe1, 0x40, 0x53, 0x81, 0xe0, 0x95, 0x1d, 0xda, 0x0c, 0x7f, 0x1c, 0xa7, 0x67, 0x45, 0xda, 0x96, 0xff, 0x19, 0xf4, 0x0a, 0x71, 0xe4, 0x07, 0x7f, 0x09, 0x06, 0x03, 0xfd, 0x0c, 0x18, 0xc5, 0xf6, 0xcc, 0x81, 0xf2, 0x0c, 0x18, 0x06, 0x7f, 0xf8, 0xf4, 0xf0, 0xd5, 0xef, 0x02, 0x28, 0xee, 0xfd, 0x7f, 0xf3, 0xf6, 0x4c, 0xc9, 0xc4, 0x85, 0x53, 0x7f, 0x68, 0x2c, 0x34, 0x6e, 0xcf, 0xa0, 0x8b, 0xc8, 0x81, 0xc3, 0x05, 0xe4, 0xf0, 0x0c, 0xee, 0xf5, 0x02, 0x95, 0x7f, 0x08, 0x4f, 0x93, };
const int32_t offsetBias6[16] = {-61021, 34252, -2285, 24618, 13685, 30536, 24619, -691, 9608, 32156, -24857, 9973, 23709, 35768, -67547, -2162, };
const int32_t offsetRBias6[16] = {0, 0, 0, 0, 0, 0, 0, 0, 0, 0, 0, 0, 0, 0, 0, 0, };
const float scales6[16] = {0.005367974166909893, 0.005184562676990925, 0.012136672702956142, 0.005771739034203002, 0.02224871041780165, 0.013848307944046748, 0.006978150990987609, 0.007830885771478393, 0.006399778651419603, 0.006358712354135209, 0.02752214377400518, 0.009708776999442245, 0.00687621021704712, 0.004276912908139208, 0.005143107511695934, 0.014717839757809468, };
const int32_t shift6[16] = {-7, -7, -6, -7, -5, -6, -7, -6, -7, -7, -5, -6, -7, -7, -7, -6, };
const int32_t multiplier6[16] = {1475537504, 1425121737, 1668051595, 1586523545, 1528919738, 1903296951, 1918139539, 1076268745, 1759157761, 1747869543, 1891307319, 1334364150, 1890118272, 1175628868, 1413726628, 2022804494, };
const unsigned char weight7[512] = {0x5f, 0xb7, 0x23, 0xa9, 0xbe, 0x25, 0xcb, 0x05, 0xa5, 0xaf, 0xdb, 0x81, 0x17, 0xf2, 0x10, 0xf2, 0x2d, 0xed, 0xc2, 0x81, 0xe7, 0xd5, 0xb3, 0xc1, 0x36, 0xd3, 0x72, 0xcf, 0x45, 0x1c, 0xe1, 0xe8, 0xf8, 0xd3, 0x03, 0xc4, 0x22, 0xaf, 0x29, 0x32, 0xf6, 0x7f, 0xa1, 0xe2, 0x73, 0xe8, 0x02, 0xf3, 0xf1, 0xc5, 0x16, 0xd2, 0x12, 0x45, 0x7f, 0xfd, 0xc1, 0xb9, 0xa9, 0x70, 0xf3, 0xec, 0xd8, 0x1c, 0x31, 0xdb, 0x0f, 0x3a, 0x1e, 0x05, 0x67, 0x09, 0x23, 0x06, 0xab, 0x52, 0x81, 0x01, 0xd9, 0x20, 0x17, 0x0f, 0x17, 0xad, 0xdb, 0x37, 0xb5, 0x39, 0x49, 0xd6, 0x81, 0xc9, 0xf7, 0x41, 0x22, 0xcd, 0x8c, 0x12, 0x12, 0x2a, 0x1e, 0x29, 0x90, 0x73, 0xcd, 0x97, 0x88, 0x7f, 0x35, 0x41, 0x2f, 0xba, 0xd1, 0x60, 0xa2, 0x2b, 0x11, 0x23, 0xe9, 0x52, 0xf3, 0xd7, 0x35, 0x47, 0x5c, 0x7f, 0x3f, 0x2d, 0xd9, 0xef, 0x26, 0x19, 0xed, 0xf6, 0x7f, 0x05, 0xd3, 0xef, 0x22, 0xe7, 0xf5, 0x97, 0xe4, 0x17, 0x1b, 0x8f, 0xfd, 0x3d, 0x3e, 0xb9, 0x36, 0xee, 0x0f, 0xe6, 0x7f, 0xca, 0x95, 0x4e, 0xa0, 0x37, 0x09, 0xc0, 0x1b, 0xae, 0x06, 0x08, 0xfe, 0x2c, 0x0a, 0x2d, 0x94, 0x81, 0x47, 0xf3, 0xc4, 0x9f, 0xb6, 0x22, 0xbe, 0x1f, 0xfc, 0xf8, 0x03, 0xff, 0x81, 0xf1, 0x77, 0x9c, 0xef, 0xbe, 0x1b, 0xe4, 0xde, 0x0d, 0xf4, 0xf5, 0x39, 0x22, 0x04, 0x12, 0x7f, 0x4b, 0xa7, 0xd8, 0xcd, 0x02, 0x04, 0xb0, 0x30, 0xec, 0xf0, 0x03, 0x16, 0x05, 0xc9, 0x1b, 0x11, 0xe8, 0x00, 0x0e, 0x7f, 0xbc, 0x0d, 0xf1, 0x61, 0xee, 0xd1, 0xd6, 0xd2, 0x62, 0x9b, 0xc3, 0xa0, 0x34, 0x2c, 0x0c, 0x54, 0xab, 0x7f, 0xf2, 0xf2, 0x04, 0xec, 0x2b, 0x05, 0x0d, 0xde, 0x3b, 0xd2, 0x81, 0x1a, 0x16, 0xe3, 0x1e, 0xfa, 0x12, 0xbb, 0x81, 0x0e, 0x21, 0x00, 0xe1, 0x01, 0x25, 0xe2, 0x56, 0xc4, 0xfe, 0x0d, 0x10, 0xea, 0xf4, 0x81, 0xf6, 0x94, 0xad, 0x0d, 0x13, 0xdc, 0xe3, 0x7d, 0xce, 0x11, 0xfd, 0xd2, 0x73, 0xc4, 0x4f, 0xcf, 0xe2, 0xd5, 0xd3, 0x15, 0x30, 0xf1, 0x1f, 0x12, 0xf5, 0x7e, 0xd1, 0x81, 0x0e, 0x1e, 0x17, 0xec, 0x99, 0xf5, 0x09, 0x3a, 0xe4, 0x29, 0xc9, 0xe9, 0xef, 0xc8, 0x7d, 0x2b, 0x7f, 0xf8, 0x22, 0xfd, 0xaa, 0x1d, 0x1d, 0xe9, 0xda, 0x7f, 0x19, 0x08, 0x4e, 0xc9, 0xd2, 0x16, 0x0a, 0xa0, 0xe9, 0x25, 0xf9, 0x81, 0xb0, 0xb4, 0x1d, 0xbc, 0xaf, 0xe6, 0xfb, 0xe9, 0xe8, 0xc8, 0xe9, 0x09, 0xf6, 0x3f, 0xdf, 0x81, 0x03, 0x0e, 0x5d, 0xe2, 0xd2, 0xc2, 0xef, 0x47, 0xbd, 0xc0, 0xf5, 0xf0, 0x83, 0xde, 0xe9, 0xcf, 0xde, 0xd9, 0xd0, 0x43, 0xbb, 0xb6, 0x13, 0x7a, 0x81, 0x24, 0x26, 0xd3, 0x15, 0xa1, 0xe8, 0x08, 0x32, 0x05, 0x00, 0x12, 0x0b, 0x0a, 0x81, 0x9f, 0x05, 0xcd, 0x01, 0xd5, 0x08, 0x01, 0xed, 0x00, 0x0f, 0x00, 0xea, 0x31, 0xdc, 0xe5, 0x9e, 0xe0, 0xfa, 0x7f, 0x1c, 0xe9, 0xf7, 0xe3, 0xf4, 0x36, 0xea, 0xe2, 0xf6, 0x00, 0xb4, 0x29, 0x7f, 0xe2, 0xca, 0xe4, 0xe1, 0xa7, 0x12, 0xc5, 0x13, 0xbd, 0x8e, 0x15, 0x04, 0x9a, 0x81, 0x3a, 0xff, 0xcc, 0x2e, 0xd7, 0x59, 0x07, 0x54, 0xeb, 0x59, 0xa3, 0x35, 0x01, 0xd7, 0x77, 0x4c, 0x81, 0x2d, 0x2f, 0xf5, 0xf7, 0x27, 0xfb, 0xf1, 0xc8, 0x25, 0xf2, 0x81, 0x27, 0x27, 0xc2, 0xe6, 0x60, 0xe9, 0x09, 0x57, 0x38, 0xdc, 0xf9, 0xea, 0x14, 0xe5, 0x33, 0x47, 0xf3, 0xfc, 0x33, 0x9b, 0x24, 0xfa, 0xe9, 0x5e, 0x7f, 0x32, 0xe1, 0x18, 0xb8, 0xc0, 0x1c, 0x8c, 0x45, 0xb7, 0x48, 0x32, 0xb2, 0x84, 0x28, 0x7f, 0x00, 0x5d, 0x8b, 0x54, };
const int32_t bias7[32] = {1824, 91, 434, 75, -651, 630, 132, -191, 346, 207, 1368, 1162, -517, -341, 99, 528, 613, 570, -89, -142, 123, 2670, 1452, 1127, 1245, 106, 367, 462, 733, -588, -390, 986, };
const float scales7[32] = {0.004305836409074323, 0.007064352682477633, 0.007485513330574854, 0.011667422466276627, 0.009295881241200087, 0.007324741023633303, 0.006976466925694949, 0.0037140484955820612, 0.012057031190363896, 0.00617375145642038, 0.008365955854041625, 0.009642636618453482, 0.009914404660107142, 0.015411782151282626, 0.012708693496040693, 0.010262977818902843, 0.011743860280486488, 0.0072472641903821465, 0.007873700344769816, 0.007686652831898603, 0.007954367160499331, 0.0059676697569909995, 0.0059812840509197215, 0.006526132121567661, 0.008107664284087126, 0.011094567714310184, 0.00815487910235062, 0.0075710206503377024, 0.004019231068464583, 0.007750964966066981, 0.00588678081999831, 0.00684178249349725, };
const int32_t shift7[32] = {-7, -7, -7, -6, -6, -7, -7, -8, -6, -7, -6, -6, -6, -6, -6, -6, -6, -7, -6, -7, -6, -7, -7, -7, -6, -6, -6, -7, -7, -7, -7, -7, };
const int32_t multiplier7[32] = {1183579300, 1941834479, 2057602237, 1603558333, 1277616189, 2013409481, 1917676626, 2041819754, 1657105749, 1697027878, 1149808217, 1325273886, 1362625401, 2118179210, 1746669534, 1410532931, 1614063867, 1992112812, 1082153135, 2112891042, 1093239898, 1640380572, 1644122841, 1793889538, 1114308894, 1524825776, 1120798050, 2081106310, 1104797824, 2130569027, 1618145990, 1880654852, };
const unsigned char weight8[1024] = {0xfa, 0xdd, 0x31, 0x09, 0x13, 0xf2, 0xef, 0xf2, 0xdf, 0xfd, 0x0d, 0xe2, 0x33, 0xe3, 0xdd, 0x10, 0x7f, 0x0b, 0xe6, 0x02, 0x16, 0xd8, 0x14, 0x29, 0xc4, 0xd8, 0x2d, 0xfc, 0xf2, 0xa2, 0x45, 0xe5, 0xfa, 0xd4, 0xc9, 0xe1, 0xf4, 0x57, 0x3c, 0x12, 0xec, 0xd9, 0xb6, 0xcb, 0x52, 0x16, 0xaf, 0xe9, 0xda, 0x24, 0x33, 0x22, 0xcb, 0x25, 0xf2, 0x21, 0xe3, 0xdb, 0x40, 0xde, 0x25, 0x7f, 0x17, 0x0f, 0x4c, 0x36, 0xca, 0x22, 0xc9, 0xda, 0xff, 0x3b, 0x66, 0x39, 0xce, 0x2c, 0x03, 0xab, 0xdd, 0xed, 0xc9, 0x37, 0xee, 0x1d, 0xe8, 0xf8, 0x2c, 0x1a, 0xd7, 0x36, 0x02, 0x15, 0x7f, 0xe4, 0x30, 0x3f, 0x24, 0x66, 0xd9, 0x4d, 0xbb, 0x1b, 0x03, 0x5a, 0x27, 0x2d, 0x19, 0xf5, 0x99, 0xbd, 0x97, 0xef, 0xc7, 0x20, 0xc5, 0x7f, 0x2a, 0xa5, 0x60, 0x6b, 0xd3, 0x26, 0xeb, 0x13, 0x49, 0x3c, 0x5a, 0x4a, 0x2f, 0xe1, 0x54, 0xee, 0xce, 0xde, 0x0b, 0xf6, 0xee, 0xec, 0x0d, 0x14, 0xde, 0xe8, 0xd8, 0xe5, 0x7f, 0x01, 0xec, 0x17, 0x32, 0xaa, 0xbd, 0x55, 0xce, 0xff, 0x22, 0xd6, 0x04, 0x33, 0x66, 0xfe, 0x03, 0x2b, 0x39, 0xf6, 0xbf, 0xfe, 0x33, 0xe9, 0x14, 0xd1, 0x0d, 0x10, 0xb8, 0xb1, 0x81, 0xbd, 0x27, 0x22, 0x10, 0x78, 0x55, 0xf0, 0x10, 0x33, 0x13, 0x3d, 0x26, 0xec, 0xee, 0xcc, 0x35, 0x34, 0x40, 0xd8, 0xcc, 0x27, 0x47, 0x2f, 0xf7, 0xe5, 0x7f, 0xed, 0x20, 0x32, 0x2c, 0xa0, 0xb6, 0x1f, 0x0b, 0xc9, 0x1a, 0x4e, 0x4e, 0xb5, 0xf9, 0x3a, 0xe0, 0xe0, 0xff, 0x37, 0xfb, 0xf4, 0x4f, 0x2f, 0xe4, 0xd0, 0xc5, 0x24, 0xd8, 0x28, 0xf4, 0xb3, 0x7f, 0x08, 0x09, 0x1a, 0x44, 0xc5, 0x98, 0x03, 0x05, 0xf0, 0x07, 0x0e, 0x42, 0xb8, 0xfe, 0x36, 0xf2, 0xfd, 0x05, 0x15, 0x08, 0xc0, 0x60, 0x1c, 0xeb, 0x7f, 0x33, 0x34, 0xf9, 0x08, 0xeb, 0x39, 0x48, 0x27, 0xda, 0xf5, 0xae, 0xcd, 0xba, 0xed, 0xfd, 0x25, 0xef, 0xf2, 0x4e, 0xba, 0x34, 0x29, 0xc7, 0x74, 0xba, 0xec, 0x32, 0xe5, 0x43, 0x3b, 0x09, 0x36, 0xfc, 0x0a, 0xa9, 0xf7, 0x3a, 0x2d, 0xda, 0xdc, 0xc6, 0x27, 0x04, 0x11, 0x81, 0xf0, 0x1d, 0x41, 0x31, 0x72, 0x1a, 0xe0, 0x27, 0x03, 0xb9, 0x2f, 0xf6, 0x02, 0xed, 0xc0, 0x16, 0x37, 0xda, 0xf8, 0xd2, 0x0e, 0xdf, 0x5d, 0x4f, 0x06, 0x0e, 0xe1, 0xbe, 0xef, 0x0a, 0xf5, 0x81, 0x53, 0xfa, 0x3f, 0x15, 0x53, 0x33, 0x34, 0xe3, 0xeb, 0xf9, 0xf6, 0xd9, 0xe2, 0x06, 0x1a, 0x21, 0x3e, 0xfc, 0x98, 0x81, 0xd2, 0x30, 0xff, 0xbf, 0xc0, 0xde, 0x02, 0x07, 0xda, 0xc1, 0x0d, 0x02, 0x3a, 0x9f, 0xe6, 0x1d, 0xec, 0x94, 0xed, 0x55, 0x3f, 0xeb, 0xe6, 0xc3, 0x75, 0xed, 0xe7, 0xf2, 0x12, 0xc0, 0xff, 0x50, 0xfe, 0xcd, 0xe4, 0x3e, 0x48, 0xf8, 0xf8, 0xc9, 0xc6, 0xa5, 0xd9, 0xbe, 0x17, 0xc5, 0x79, 0x2c, 0x5f, 0x30, 0xc3, 0x23, 0x54, 0xe8, 0x7f, 0xc4, 0x3f, 0x4f, 0x36, 0x78, 0x0e, 0xec, 0xd0, 0x56, 0xe0, 0xc9, 0xde, 0x15, 0x23, 0xe3, 0x0a, 0xf6, 0xf3, 0x0f, 0x3c, 0x81, 0x9d, 0x4d, 0x27, 0x0b, 0xf7, 0x48, 0x06, 0x14, 0xde, 0xf0, 0x11, 0x49, 0x10, 0x07, 0x11, 0x2f, 0x00, 0x08, 0x0d, 0x46, 0x4d, 0x46, 0x1f, 0x2d, 0x5e, 0xe3, 0xe5, 0x14, 0xda, 0xec, 0xa4, 0x86, 0x30, 0x43, 0xf3, 0xee, 0x58, 0x4c, 0xb0, 0xfa, 0x38, 0xd4, 0x4b, 0xf1, 0x10, 0x42, 0xd3, 0x7f, 0x46, 0x0e, 0xdb, 0xd1, 0x0c, 0x2f, 0xfc, 0x5b, 0x64, 0x08, 0xd9, 0xda, 0x3c, 0xf6, 0x02, 0xd7, 0x21, 0x1f, 0xf2, 0xe3, 0xd8, 0xbd, 0xdb, 0xc9, 0xe5, 0x1f, 0x81, 0xf9, 0x1f, 0x37, 0x6b, 0x43, 0xf5, 0x16, 0xf5, 0x25, 0x01, 0x21, 0xf7, 0xbe, 0x17, 0xe2, 0x18, 0xd6, 0x1e, 0x7f, 0xb6, 0xe1, 0xf0, 0x43, 0x41, 0xfa, 0x0b, 0x18, 0xf2, 0xae, 0xb1, 0xd7, 0xc1, 0x2c, 0x06, 0xd9, 0xe8, 0xbe, 0x00, 0xd3, 0x3f, 0x22, 0x20, 0xf5, 0xea, 0xed, 0x7f, 0xf1, 0x27, 0xdf, 0x0f, 0xd5, 0xf1, 0xd9, 0x0c, 0xcc, 0x13, 0x01, 0xeb, 0x22, 0xcf, 0x32, 0x24, 0x1b, 0x37, 0xe8, 0x23, 0x3a, 0x30, 0x34, 0x12, 0xe1, 0xe4, 0x07, 0x5f, 0x7f, 0xe4, 0x2b, 0xf7, 0xea, 0x73, 0xfd, 0xac, 0x3e, 0x8e, 0xb6, 0x11, 0x5b, 0xbf, 0xb9, 0x02, 0x50, 0xad, 0x0a, 0xb5, 0xe3, 0xee, 0x25, 0x1b, 0x30, 0xe7, 0xfe, 0x11, 0xe1, 0x05, 0x16, 0x22, 0x02, 0x0c, 0x12, 0x1e, 0x01, 0xd7, 0x16, 0xf0, 0x81, 0xf4, 0xa4, 0xe0, 0x14, 0xfd, 0x26, 0x5d, 0x08, 0xe2, 0x20, 0x4f, 0xd1, 0xf1, 0xf3, 0x2a, 0x01, 0xed, 0x4c, 0x24, 0x09, 0xfc, 0xb3, 0x0d, 0xe3, 0x60, 0x24, 0x1f, 0x09, 0xe8, 0xda, 0x11, 0xf5, 0xb9, 0x92, 0x05, 0xe9, 0x35, 0x49, 0x7f, 0x2d, 0xf8, 0x42, 0x21, 0x0c, 0x0b, 0xf2, 0x26, 0x2d, 0x0b, 0x05, 0x41, 0x3f, 0xd1, 0xc3, 0x08, 0xd4, 0x05, 0xce, 0x05, 0xf5, 0x20, 0xb8, 0x25, 0x14, 0xc3, 0xfa, 0x2a, 0xf8, 0x7f, 0x14, 0x24, 0x00, 0xdd, 0x38, 0x33, 0x07, 0xf8, 0x19, 0x22, 0x2d, 0x5d, 0xef, 0x0f, 0x22, 0x1c, 0x16, 0x2d, 0x1d, 0xbc, 0x07, 0x7f, 0x38, 0xfd, 0x0b, 0x0b, 0xff, 0x9a, 0xe3, 0xe2, 0x0d, 0x5c, 0xc0, 0x54, 0x13, 0xeb, 0x12, 0xd1, 0xfd, 0x66, 0xd9, 0x0d, 0x24, 0xef, 0x00, 0x2e, 0x05, 0x35, 0xfb, 0x0a, 0xe5, 0x3c, 0x53, 0x7f, 0xff, 0xf1, 0xf4, 0x2a, 0x00, 0xf7, 0xb3, 0xe0, 0x9d, 0x66, 0x3b, 0x66, 0x25, 0xda, 0x32, 0x1e, 0xb7, 0xee, 0xfa, 0x5f, 0xfa, 0x48, 0x04, 0x30, 0x55, 0xe5, 0xbd, 0x00, 0x17, 0x75, 0x3d, 0x19, 0x29, 0xfe, 0xad, 0xe5, 0x25, 0xe5, 0x83, 0x54, 0x05, 0x28, 0x09, 0x21, 0x3d, 0xdb, 0x81, 0x8e, 0xe1, 0x03, 0xd1, 0x2f, 0xe2, 0x3a, 0x13, 0x1b, 0xe7, 0xd8, 0xdd, 0x23, 0x26, 0x1c, 0x16, 0x0b, 0x46, 0xfc, 0x17, 0x2b, 0x13, 0xdb, 0x81, 0x11, 0xc3, 0x3f, 0xf3, 0x2f, 0x4d, 0xe2, 0xdf, 0xf1, 0x0d, 0x26, 0xf0, 0x2a, 0xf0, 0xe7, 0x0a, 0x64, 0xe7, 0xe3, 0xf7, 0x19, 0x22, 0x08, 0x79, 0x45, 0x14, 0xa4, 0xeb, 0x14, 0xf2, 0x17, 0x81, 0xd6, 0x62, 0x0b, 0x24, 0x4b, 0x2c, 0xe3, 0xd7, 0xe7, 0x99, 0x8a, 0x43, 0xff, 0xce, 0x25, 0x64, 0x48, 0x26, 0xec, 0x3f, 0xe8, 0x0f, 0xb9, 0x04, 0xde, 0x78, 0xcd, 0xd2, 0x46, 0xf9, 0xc2, 0xc1, 0x0a, 0x2c, 0x0b, 0xcf, 0xf1, 0x42, 0xf1, 0x07, 0x4b, 0x15, 0xeb, 0xee, 0x0a, 0xe7, 0xc7, 0x7f, 0x34, 0xe4, 0x0b, 0x19, 0x51, 0x15, 0x4b, 0x70, 0xf7, 0x1f, 0xb3, 0x1b, 0x11, 0xe4, 0xea, 0xa6, 0xe2, 0x3f, 0xf9, 0x3a, 0x7f, 0x24, 0xfd, 0xd5, 0x21, 0xa1, 0xa7, 0x17, 0x03, 0xdb, 0x03, 0x61, 0x31, 0x27, 0xf3, 0xcf, 0x16, 0x7f, 0xc6, 0x0c, 0x3d, 0xfa, 0x09, 0x10, 0xd9, 0x14, 0xd3, 0xef, 0x42, 0xfc, 0x09, 0xcf, 0x0b, 0x34, 0xde, 0xf5, 0xe7, 0x36, 0xc2, 0xdc, 0xc7, 0x22, 0x05, 0xe9, 0x19, 0xf3, 0xf7, 0xf3, 0x3e, 0x24, 0xfd, 0x2e, 0xf8, 0x74, 0xce, 0xe6, 0x16, 0xd8, 0x93, 0x9a, 0xb3, 0x46, 0xec, 0x08, 0x60, 0x63, 0x9d, 0x1c, 0x40, 0xe2, 0x16, 0x02, 0x29, 0xae, 0xe7, 0x7f, 0x5a, 0x25, 0xc5, 0xb5, 0x1f, 0x20, 0xff, 0x49, 0x34, 0x23, 0xf4, 0x1e, 0xff, 0x6e, 0xed, 0x81, 0x52, 0x13, 0x2e, 0xee, 0x3c, 0x3d, 0xc9, 0xca, 0xab, 0x07, 0xeb, 0xec, 0xf8, 0xe0, 0xf5, 0x10, 0x40, };
const int32_t bias8[32] = {-2, -39, -979, -694, 65, -449, -450, 685, -631, 372, -649, 2370, -855, -236, -965, 533, 1098, -454, 909, -437, -996, -608, -1150, -1058, 1314, -303, 492, -480, -454, 141, 449, 38, };
const float scales8[32] = {0.0041463446201140935, 0.004943076793939098, 0.0025641739799011406, 0.00178049388442695, 0.0024250244747579188, 0.002885937295849631, 0.0029421967094005468, 0.0033672930864998003, 0.002126747557827694, 0.003304643852866668, 0.004280978993376608, 0.0022929763050209186, 0.001569029158414906, 0.003303155032830728, 0.0015403219899272121, 0.004274654550209669, 0.0044572611427435346, 0.00268013633493483, 0.0029214212868849026, 0.003363847289968358, 0.0035768122821324237, 0.004642884560251182, 0.00278239160504697, 0.0025567247238132964, 0.003950891979318887, 0.003788459011701985, 0.0025973716350286094, 0.0028255416065485, 0.0030069215054165156, 0.006203146509338228, 0.0021616858475449027, 0.0038447450297389284, };
const int32_t shift8[32] = {-7, -7, -8, -9, -8, -8, -8, -8, -8, -8, -7, -8, -9, -8, -9, -7, -7, -8, -8, -8, -8, -7, -8, -8, -7, -8, -8, -8, -8, -7, -8, -8, };
const int32_t multiplier8[32] = {1139738531, 1358742603, 1409669553, 1957673729, 1333171304, 1586560807, 1617489747, 1851188951, 1169191835, 1816747171, 1176746545, 1260577055, 1725165804, 1815928683, 1693601938, 1175008096, 1225202614, 1473420532, 1606068337, 1849294605, 1966373347, 1276226390, 1529635961, 1405574281, 1086012918, 2082727367, 1427920157, 1553357926, 1653072580, 1705107929, 1188399362, 2113670933, };
const unsigned char CHWweight9[288] = {0xfa, 0x1b, 0x3d, 0xff, 0x7f, 0xed, 0xde, 0xf9, 0xdb, 0x05, 0x16, 0x00, 0xaf, 0xc6, 0xef, 0x7f, 0xcd, 0xfd, 0x08, 0xc0, 0xdc, 0xb5, 0xcf, 0x04, 0x25, 0x7f, 0x53, 0x06, 0xfc, 0xf2, 0x21, 0xf5, 0x31, 0x7f, 0x1c, 0xf5, 0x1a, 0xeb, 0xbe, 0x18, 0xdc, 0xc1, 0x08, 0x1d, 0x7f, 0x0c, 0x7f, 0x3c, 0x0c, 0x1b, 0x7e, 0xf2, 0x02, 0xe0, 0x04, 0x29, 0x7f, 0x07, 0x8e, 0xc6, 0x30, 0xf0, 0xe2, 0xfe, 0x12, 0xf2, 0x15, 0x70, 0x7f, 0xf8, 0xf6, 0xf4, 0x0e, 0xe5, 0x1e, 0xe6, 0xe1, 0x58, 0xe8, 0xea, 0x81, 0xfa, 0xbc, 0xe4, 0x5a, 0x6e, 0xea, 0xf7, 0x7f, 0x57, 0x03, 0x20, 0x1c, 0xdc, 0x8a, 0x96, 0xc4, 0xa5, 0x81, 0x11, 0xfe, 0xe3, 0x5c, 0xf0, 0xea, 0x77, 0x81, 0x27, 0x09, 0xe2, 0xea, 0x2e, 0x5b, 0xff, 0xc7, 0x81, 0xf0, 0xfd, 0xf9, 0x07, 0x08, 0x29, 0x2b, 0x26, 0x7f, 0xce, 0xfb, 0xf4, 0xf3, 0x05, 0xaa, 0xfa, 0xf5, 0x7f, 0xfe, 0x03, 0x94, 0xf5, 0x09, 0xfb, 0xaf, 0xfc, 0x7f, 0xdf, 0xfd, 0xfb, 0x0a, 0xfc, 0xdc, 0x6f, 0xf7, 0xef, 0x7f, 0xf4, 0x16, 0xfb, 0xd5, 0x7f, 0x3c, 0xe8, 0x88, 0xd6, 0x03, 0xed, 0x3c, 0x00, 0xae, 0x7f, 0xf7, 0xeb, 0xff, 0xfd, 0xc3, 0xe9, 0x6c, 0x81, 0xf3, 0x5b, 0xae, 0x3b, 0x04, 0x2e, 0xcf, 0xda, 0xfb, 0x7f, 0xda, 0xce, 0x53, 0x26, 0xf4, 0x50, 0x33, 0x81, 0x60, 0x67, 0x9f, 0x5d, 0xf6, 0x46, 0x7f, 0x00, 0xe2, 0xb3, 0xf0, 0xca, 0xc7, 0x01, 0xec, 0x12, 0xd8, 0x9d, 0x53, 0xb2, 0x7f, 0xad, 0xfe, 0xf4, 0x17, 0x02, 0x65, 0x28, 0xd7, 0x81, 0xa3, 0x02, 0xd0, 0xba, 0xc3, 0xca, 0xb0, 0xca, 0x81, 0x93, 0x01, 0xf9, 0x00, 0xfb, 0xf1, 0x54, 0xf8, 0xed, 0x7f, 0x1e, 0xcb, 0xc9, 0x14, 0xda, 0xdd, 0xd6, 0x7f, 0xe1, 0xfb, 0x30, 0xd6, 0x0b, 0x62, 0x81, 0x11, 0xf1, 0x07, 0x03, 0x2e, 0x18, 0xfc, 0x53, 0x1a, 0xfe, 0x94, 0x7f, 0xea, 0x21, 0x20, 0xf4, 0x7f, 0x08, 0xe8, 0x16, 0x24, 0x07, 0xeb, 0xf7, 0xfc, 0x29, 0x7f, 0x07, 0x51, 0x42, };
const int32_t offsetBias9[32] = {14108, -6984, 4884, 25886, 3483, 40709, 1251, 29477, -15678, 35826, -59695, 8906, -13143, 26088, -238, -13068, 22021, -4256, 7520, -6186, 10161, 28645, -5755, -11336, -13484, -74855, 20230, -9639, -873, 24749, 25326, 37542, };
const int32_t offsetRBias9[32] = {0, 0, 0, 0, 0, 0, 0, 0, 0, 0, 0, 0, 0, 0, 0, 0, 0, 0, 0, 0, 0, 0, 0, 0, 0, 0, 0, 0, 0, 0, 0, 0, };
const float scales9[32] = {0.009714666444387605, 0.008691473817460639, 0.009097041430066864, 0.010304946731062529, 0.010130043906029267, 0.007652598118342554, 0.008336900461667338, 0.007364248363381362, 0.01215374404580337, 0.00567221121938088, 0.006084506436293936, 0.01743896008648029, 0.009764304047493863, 0.008844905785262215, 0.012766003934849982, 0.008084707858119277, 0.009181030333516787, 0.009548084126701302, 0.00799196672593769, 0.008596574725613957, 0.008451035427325318, 0.004689664804832027, 0.009307536349888297, 0.008710259846650692, 0.007350112886139025, 0.007628630138019108, 0.009106486872596166, 0.01029542879558707, 0.010359764343526834, 0.007899190641799917, 0.01066674737468439, 0.008714106503606194, };
const int32_t shift9[32] = {-6, -6, -6, -6, -6, -7, -6, -7, -6, -7, -7, -5, -6, -6, -6, -6, -6, -6, -6, -6, -6, -7, -6, -6, -7, -7, -6, -6, -6, -6, -6, -6, };
const int32_t multiplier9[32] = {1335173589, 1194547066, 1250287854, 1416301094, 1392262633, 2103530153, 1145814875, 2024269176, 1670397862, 1559165548, 1672496394, 1198396212, 1341995730, 1215634595, 1754546221, 1111153787, 1261831201, 1312278690, 1098407543, 1181504234, 1161501465, 1289085246, 1279218055, 1197128998, 2020383646, 2096941885, 1251586026, 1414992959, 1423835170, 1085656495, 1466026596, 1197657678, };
const unsigned char weight10[2048] = {0x27, 0xdf, 0xca, 0xd0, 0x07, 0xab, 0x1b, 0x93, 0x38, 0xba, 0xf6, 0x0a, 0xbc, 0x3c, 0xde, 0xd9, 0x0f, 0xcd, 0x12, 0x06, 0x0c, 0x06, 0x30, 0x24, 0x17, 0x9c, 0x2b, 0xe0, 0x81, 0xc4, 0xe0, 0x10, 0xce, 0x07, 0xfc, 0x76, 0xf8, 0x58, 0xf2, 0x00, 0x0e, 0x38, 0xf3, 0xe7, 0xf8, 0x2b, 0x0f, 0x1b, 0x40, 0x2c, 0x1b, 0x63, 0x26, 0xe2, 0x2b, 0xe7, 0x18, 0xd6, 0x4b, 0x1d, 0xa2, 0x36, 0x7f, 0xec, 0xed, 0x24, 0x00, 0x11, 0x11, 0xe9, 0xc1, 0xe4, 0xf1, 0xc9, 0x8f, 0x00, 0x1a, 0xcd, 0xdb, 0x19, 0xa0, 0xa9, 0xd1, 0x7f, 0xc5, 0xf7, 0xc0, 0xe5, 0xe1, 0xc1, 0xfb, 0xde, 0xbd, 0x0d, 0x40, 0x32, 0x04, 0xdd, 0x35, 0x67, 0xdd, 0xd9, 0x32, 0xc0, 0x93, 0xd9, 0xed, 0x10, 0x17, 0x1b, 0x81, 0x04, 0xa5, 0x28, 0xa9, 0x8a, 0xae, 0xf6, 0xa9, 0xb2, 0xba, 0x1f, 0x2d, 0x0a, 0xc6, 0x01, 0xdf, 0xb4, 0xfa, 0xfa, 0xea, 0xd9, 0x13, 0xef, 0xc9, 0xc2, 0xaf, 0xb5, 0x79, 0x19, 0xfc, 0xd0, 0xaf, 0xba, 0xf1, 0xe1, 0x28, 0x81, 0xf0, 0x2c, 0xc4, 0xe4, 0xc7, 0x0e, 0x97, 0x5a, 0xed, 0xeb, 0xc1, 0xcb, 0x0d, 0xe7, 0xa0, 0xc2, 0x3f, 0xb7, 0x20, 0x24, 0xef, 0xf7, 0x9c, 0x09, 0xc6, 0x28, 0x81, 0x4c, 0x2c, 0x51, 0x35, 0xf5, 0xf2, 0xf4, 0xee, 0x1a, 0xe1, 0xcc, 0xc8, 0x18, 0x17, 0x08, 0x27, 0xfc, 0xec, 0x0c, 0xe9, 0x35, 0xed, 0x7f, 0x33, 0xdf, 0x23, 0xdb, 0xeb, 0x15, 0x0a, 0xf8, 0x4e, 0xfa, 0x04, 0x27, 0xdc, 0xf7, 0xfc, 0x34, 0x2a, 0x1e, 0xe2, 0xb6, 0x04, 0x0d, 0xbf, 0x0d, 0x30, 0x0e, 0x58, 0xf9, 0xe9, 0x22, 0xd9, 0xd4, 0xa9, 0xff, 0xff, 0x47, 0x1a, 0x02, 0x3e, 0xfb, 0x09, 0x10, 0x1f, 0x81, 0xe2, 0x16, 0xba, 0xe0, 0xa6, 0x3d, 0xfa, 0xc2, 0xfb, 0x1b, 0xf5, 0x18, 0xd3, 0xf3, 0xfd, 0xdf, 0xee, 0xf7, 0x07, 0x58, 0x33, 0xe3, 0xff, 0xe0, 0x37, 0xbe, 0xaa, 0xe2, 0xd0, 0xa4, 0xf3, 0xf9, 0xe9, 0x83, 0xf7, 0xd5, 0x7f, 0x02, 0x26, 0x04, 0x23, 0x0b, 0x25, 0xf7, 0x95, 0x69, 0xec, 0x03, 0x37, 0x35, 0xff, 0x03, 0xb3, 0x19, 0x0c, 0xe1, 0x14, 0x04, 0x22, 0x14, 0xfc, 0xfe, 0xea, 0xfe, 0x0b, 0xe0, 0xfd, 0x0b, 0xa6, 0xe2, 0xed, 0x81, 0x10, 0x25, 0xad, 0xf2, 0xc1, 0x39, 0xfc, 0xe9, 0x69, 0xec, 0x20, 0x8a, 0x05, 0x2a, 0x7f, 0xef, 0xdd, 0xed, 0xc6, 0xd8, 0x8c, 0xda, 0x1a, 0x08, 0xe3, 0xf4, 0x35, 0x35, 0xde, 0xc9, 0xbb, 0xb7, 0x4f, 0xfa, 0x02, 0xf7, 0xc5, 0xb3, 0x2a, 0xe9, 0x1b, 0x23, 0xfb, 0xf3, 0x1b, 0x17, 0x02, 0x18, 0xe7, 0xfd, 0x26, 0x73, 0x62, 0x20, 0x4e, 0x56, 0x24, 0x4b, 0x18, 0xe4, 0x88, 0xd4, 0x1a, 0x03, 0x42, 0x7f, 0x6b, 0x2f, 0x29, 0xba, 0xdc, 0x28, 0xf0, 0xbd, 0x21, 0x2d, 0x30, 0xe2, 0x66, 0xab, 0xe6, 0xa3, 0x11, 0xed, 0xca, 0xb6, 0xe0, 0xeb, 0xd7, 0x13, 0x3f, 0xe3, 0x35, 0x26, 0x1d, 0xb2, 0x6c, 0xfa, 0xa0, 0xfd, 0x81, 0x32, 0xdb, 0x04, 0x6b, 0x7f, 0xff, 0x25, 0x3e, 0x20, 0xec, 0x19, 0x2d, 0x09, 0xd8, 0x1f, 0x0b, 0xfe, 0x39, 0xfa, 0xe6, 0x19, 0x0c, 0xc0, 0x1e, 0xbc, 0xfa, 0xb5, 0x21, 0x0a, 0x44, 0xd2, 0x5b, 0x1f, 0x06, 0xa9, 0x81, 0xe3, 0x30, 0xd1, 0x52, 0x07, 0xc5, 0x21, 0xee, 0x0c, 0x3e, 0xdd, 0xcb, 0xe7, 0x05, 0x4d, 0x1d, 0xa0, 0x1c, 0xd8, 0x48, 0x9f, 0x68, 0xfe, 0xb0, 0xec, 0x37, 0x05, 0x3c, 0x25, 0xdb, 0x12, 0x81, 0x24, 0xe2, 0x43, 0xeb, 0xe2, 0x8e, 0xf4, 0xcc, 0x03, 0xfb, 0xa7, 0xcd, 0x09, 0x09, 0x0d, 0xec, 0x4c, 0xe4, 0x14, 0xc3, 0xcb, 0x26, 0xc7, 0xc8, 0x26, 0x17, 0x33, 0x08, 0xd7, 0xfc, 0xfd, 0xe8, 0xc2, 0x1c, 0xd4, 0x48, 0xdc, 0x42, 0xc5, 0xf2, 0xea, 0x2d, 0xe1, 0xda, 0xee, 0x42, 0xbe, 0xb8, 0xdb, 0xe8, 0x06, 0x22, 0x43, 0x0b, 0x00, 0x13, 0x0d, 0x81, 0xfe, 0x12, 0xec, 0xce, 0x2d, 0xe3, 0x4e, 0xc6, 0xed, 0xe9, 0x1a, 0x91, 0x81, 0xf8, 0xef, 0x0e, 0x2a, 0xd2, 0xbc, 0x08, 0xa5, 0xd0, 0x40, 0xa4, 0x0e, 0xc7, 0xe4, 0xe2, 0x33, 0xe0, 0xfc, 0xfb, 0xec, 0xfb, 0xf6, 0x03, 0xf0, 0x32, 0xe2, 0x46, 0xff, 0xea, 0x13, 0xfc, 0x12, 0xf0, 0x10, 0xbb, 0xfa, 0xeb, 0xba, 0x0a, 0xe5, 0xf2, 0xff, 0x21, 0x22, 0xec, 0x04, 0x0a, 0xef, 0x3e, 0x04, 0xbd, 0xcc, 0x15, 0x81, 0x12, 0x41, 0x18, 0x1f, 0xaa, 0xe2, 0xbe, 0xf2, 0x81, 0xdb, 0x0c, 0x28, 0xd2, 0x10, 0x44, 0x11, 0xfd, 0x85, 0xd0, 0x61, 0xcd, 0x1a, 0xdb, 0xf9, 0xcc, 0xa9, 0x0c, 0x10, 0xd9, 0x33, 0x00, 0x07, 0xf2, 0xae, 0x2a, 0x61, 0x09, 0xb0, 0xf7, 0x12, 0xc2, 0xef, 0x35, 0xc5, 0xce, 0xe5, 0x29, 0x07, 0x18, 0x81, 0xe2, 0xf1, 0x0f, 0xda, 0xd8, 0xbc, 0x56, 0xec, 0xb2, 0xfa, 0xac, 0x00, 0xfd, 0x2e, 0x19, 0xee, 0x81, 0xba, 0xdb, 0x14, 0xbd, 0xbc, 0x0e, 0x6a, 0xe7, 0x23, 0xeb, 0xcb, 0xe6, 0xcb, 0x13, 0xb5, 0x1a, 0x5d, 0xd5, 0x05, 0x48, 0x08, 0xe1, 0x01, 0xd7, 0x21, 0x10, 0xea, 0xdc, 0x14, 0x1a, 0x05, 0xc0, 0xc7, 0xe7, 0x19, 0xe5, 0x06, 0x3a, 0x0e, 0xd1, 0xe9, 0x04, 0x10, 0x05, 0xb2, 0x15, 0xa2, 0xf5, 0x7f, 0x3d, 0x10, 0xac, 0xe2, 0xc4, 0xdc, 0xf9, 0x01, 0x0a, 0xbb, 0xb9, 0x05, 0xec, 0xf8, 0x7f, 0x84, 0x21, 0xd7, 0xe0, 0xa4, 0xf7, 0xc8, 0xea, 0x02, 0x0b, 0x31, 0x8f, 0x0b, 0x06, 0xfc, 0xf7, 0xf9, 0xf6, 0x3c, 0xba, 0xb2, 0xe1, 0x02, 0x1b, 0x93, 0xcc, 0xfd, 0x08, 0xbd, 0xce, 0x0f, 0x42, 0xc0, 0xef, 0xaa, 0x16, 0x44, 0xea, 0x56, 0xa0, 0x1b, 0xe0, 0xf0, 0x50, 0x1a, 0xb8, 0x22, 0x14, 0xe4, 0x0c, 0x12, 0x99, 0xef, 0x81, 0xc3, 0x7f, 0xec, 0x1a, 0x38, 0x22, 0x62, 0x51, 0x25, 0x81, 0xda, 0x14, 0x24, 0x13, 0xed, 0xef, 0xf8, 0x2f, 0xf8, 0xe9, 0x13, 0xd2, 0xee, 0xf5, 0xd7, 0xe2, 0x43, 0xf3, 0xf5, 0x29, 0xdb, 0x1d, 0x04, 0xce, 0x1f, 0x25, 0x1e, 0xf2, 0x49, 0x0f, 0x08, 0x06, 0xec, 0x26, 0xf6, 0xd3, 0x81, 0x5b, 0x25, 0xaf, 0xf1, 0x1c, 0xfc, 0xc3, 0xfc, 0xea, 0x4f, 0xbd, 0xb3, 0xc1, 0x03, 0xfc, 0xe3, 0xf5, 0xda, 0xc4, 0xf6, 0xbf, 0x48, 0xcc, 0xba, 0xe5, 0xc2, 0xfb, 0xdc, 0xc9, 0xfd, 0xd6, 0x02, 0x17, 0x19, 0xb4, 0xf4, 0xf3, 0xdf, 0xd4, 0x22, 0x3a, 0xbe, 0xe7, 0xdc, 0x5f, 0x0f, 0x81, 0xbf, 0xea, 0x0e, 0xfa, 0xe7, 0x1c, 0xf8, 0xa8, 0xf4, 0xe9, 0xf9, 0xd5, 0xd4, 0xe7, 0x00, 0xbd, 0xa7, 0xdd, 0x2c, 0xf3, 0x06, 0xea, 0x08, 0xab, 0xd6, 0xef, 0xa7, 0xe9, 0xf8, 0xe7, 0xe5, 0x21, 0x0f, 0x34, 0x7f, 0xe5, 0xef, 0x35, 0xd6, 0xf9, 0x3e, 0x05, 0xe0, 0xe3, 0xcf, 0xdd, 0x12, 0x81, 0xc7, 0xe7, 0xd8, 0xdd, 0xf9, 0xcb, 0x70, 0xdc, 0xe4, 0xc3, 0x55, 0xfa, 0xf0, 0xbe, 0x01, 0x6b, 0x10, 0xf7, 0x3d, 0xff, 0xed, 0x14, 0x05, 0xa3, 0xdb, 0x21, 0xed, 0xca, 0x19, 0x16, 0x24, 0xfb, 0xaa, 0xfb, 0xf4, 0xd5, 0x1f, 0xfa, 0x7f, 0x0a, 0x02, 0x2f, 0xe7, 0x21, 0xd9, 0xdd, 0x27, 0xe1, 0xe0, 0xbf, 0xa0, 0x2c, 0x0d, 0x3e, 0xe5, 0x27, 0x16, 0xff, 0xfc, 0x10, 0xc2, 0xdc, 0xf6, 0xa1, 0x81, 0xad, 0xb3, 0xaf, 0x05, 0x58, 0x4d, 0xdb, 0x38, 0xae, 0xf8, 0xee, 0xef, 0x14, 0xff, 0xc3, 0x1e, 0xd1, 0x35, 0x5b, 0xf7, 0xc1, 0xf0, 0x03, 0x8c, 0xd6, 0xc8, 0xf1, 0xe1, 0x55, 0x2a, 0x60, 0x13, 0x09, 0x2b, 0x03, 0xb4, 0xbc, 0x12, 0xd1, 0xb4, 0xd5, 0xfe, 0x2c, 0xa3, 0x46, 0xcf, 0x1e, 0xe1, 0x1f, 0x2d, 0x7f, 0x9c, 0x5b, 0xf1, 0x86, 0xea, 0x52, 0x24, 0xfb, 0x52, 0xba, 0x90, 0x81, 0x2c, 0xd3, 0x1c, 0xc1, 0x21, 0xf1, 0xb2, 0x1f, 0x06, 0xcc, 0x22, 0xd1, 0xeb, 0xab, 0x05, 0xfa, 0x08, 0xf9, 0xf9, 0xa7, 0xd6, 0x2c, 0x38, 0x4a, 0x24, 0xf1, 0x34, 0xc2, 0xba, 0xe5, 0xc5, 0xee, 0x14, 0xf8, 0xc0, 0xf2, 0xe3, 0xfa, 0xe9, 0xff, 0xdf, 0x7f, 0x01, 0xf5, 0x5e, 0x15, 0x51, 0xfa, 0x28, 0x01, 0xc4, 0xda, 0x18, 0xd9, 0x05, 0xcc, 0xc8, 0x23, 0x41, 0xe2, 0xec, 0xd0, 0x1f, 0x01, 0x30, 0x32, 0x3b, 0xf9, 0x51, 0x1b, 0xd4, 0xca, 0x0d, 0x09, 0x42, 0x67, 0x20, 0x1a, 0xf1, 0x2e, 0xfc, 0xea, 0xa4, 0x10, 0xd1, 0x2f, 0xea, 0x19, 0x7f, 0x26, 0x2d, 0xd3, 0x5e, 0xe4, 0xfc, 0xe2, 0x0a, 0xdb, 0x50, 0xfa, 0xbe, 0x7f, 0x03, 0x02, 0x1f, 0x41, 0xb8, 0x09, 0xee, 0xc6, 0xe6, 0xd7, 0x03, 0xbd, 0xff, 0xa9, 0x19, 0xc1, 0x24, 0x38, 0x0f, 0x20, 0xfd, 0x11, 0xa3, 0x30, 0x59, 0x44, 0x84, 0x77, 0x46, 0xb0, 0xfc, 0x08, 0x35, 0x81, 0x6b, 0x01, 0x51, 0xd7, 0xb3, 0xf1, 0x1c, 0xfe, 0x1d, 0xff, 0x4c, 0x38, 0xc2, 0x3b, 0xca, 0xd3, 0xf2, 0xcd, 0xde, 0x25, 0x99, 0xb2, 0xc8, 0xd0, 0x17, 0x05, 0xf2, 0x8e, 0x00, 0x9a, 0xea, 0xdb, 0x34, 0xdc, 0x7f, 0x13, 0x98, 0xf5, 0x9d, 0xed, 0x22, 0xda, 0x9e, 0xf5, 0x07, 0x23, 0x22, 0xaa, 0x3d, 0x36, 0x1d, 0xca, 0xdc, 0x53, 0x50, 0xf4, 0xb6, 0xeb, 0xf6, 0x3c, 0xf2, 0x0d, 0xd3, 0xd5, 0x5c, 0x1f, 0x39, 0x16, 0x06, 0x24, 0x06, 0x61, 0x2a, 0x00, 0x71, 0x81, 0x34, 0x40, 0x02, 0x89, 0xf8, 0x04, 0xda, 0x15, 0xcc, 0xf9, 0x15, 0x30, 0x28, 0x7f, 0x23, 0xd3, 0xfa, 0xff, 0x0c, 0xd1, 0xdf, 0xf0, 0x02, 0xc4, 0xe9, 0x25, 0xfa, 0x16, 0x3a, 0xff, 0xe8, 0x36, 0xe8, 0xc0, 0x01, 0xde, 0x29, 0x05, 0xfe, 0x4b, 0xea, 0xe6, 0xd1, 0xe3, 0x16, 0xf5, 0xf2, 0xfa, 0xe1, 0x27, 0x1b, 0xd5, 0x11, 0x2f, 0x13, 0xf8, 0xac, 0x4a, 0x41, 0xb5, 0xea, 0xeb, 0x25, 0xf0, 0xa0, 0xd4, 0xed, 0xc8, 0x81, 0x42, 0xd6, 0xd2, 0xb8, 0xcf, 0xd1, 0xdf, 0xb2, 0xdf, 0xf0, 0x3b, 0xd8, 0x05, 0x28, 0xca, 0x03, 0x94, 0x24, 0xdb, 0x93, 0xec, 0x37, 0xbe, 0xcb, 0xf3, 0x78, 0x33, 0xcc, 0x81, 0xbf, 0x3d, 0xbc, 0xd6, 0x09, 0x18, 0xff, 0xf1, 0x37, 0xfc, 0xfd, 0xdd, 0x21, 0x8e, 0xb7, 0x9c, 0x0c, 0xe5, 0xb5, 0xe1, 0x58, 0x3f, 0x17, 0x05, 0xe1, 0x1d, 0x23, 0x2a, 0xe5, 0x7d, 0xcf, 0x2b, 0xca, 0x81, 0x97, 0x23, 0x0f, 0x00, 0xf7, 0xfe, 0x03, 0xf3, 0x4e, 0x15, 0x2b, 0xf6, 0x01, 0xfa, 0x08, 0xfa, 0x07, 0x0e, 0xf7, 0xfa, 0xec, 0xed, 0x01, 0xd7, 0xf0, 0xdd, 0x81, 0x37, 0xdd, 0x01, 0x00, 0x07, 0xc2, 0xb7, 0x2c, 0x9f, 0x81, 0x55, 0xd8, 0x06, 0xe9, 0xc8, 0xe6, 0x1d, 0xe5, 0x0e, 0x09, 0x2c, 0xc8, 0xf8, 0xd0, 0xe2, 0xe0, 0xf0, 0x62, 0x21, 0x3b, 0xf0, 0x02, 0xef, 0xa2, 0xc1, 0xab, 0xbf, 0xef, 0x16, 0xe0, 0x0c, 0xc8, 0xd9, 0xf3, 0xf7, 0x47, 0xc8, 0xe3, 0xd4, 0x20, 0x09, 0x6a, 0x7f, 0x46, 0x1a, 0xd9, 0x03, 0xc7, 0x00, 0xfa, 0x04, 0x09, 0x02, 0xf5, 0x95, 0x27, 0x17, 0x01, 0x37, 0x06, 0x1e, 0x3c, 0xf5, 0x1f, 0x87, 0x0b, 0xac, 0x01, 0xcd, 0x4c, 0xfd, 0x41, 0x03, 0x1a, 0x35, 0x32, 0x33, 0x3f, 0x09, 0x36, 0x97, 0x18, 0xe8, 0x3f, 0xeb, 0x93, 0xa1, 0xf1, 0xcd, 0xec, 0x7f, 0x1c, 0xbe, 0xfd, 0xf9, 0x05, 0xfb, 0xce, 0x69, 0xea, 0xca, 0xed, 0xfc, 0xff, 0x37, 0x81, 0xd3, 0x0b, 0xd4, 0x02, 0x0f, 0xe7, 0xfb, 0xe7, 0x27, 0xba, 0xb1, 0xe5, 0xc2, 0xc8, 0xec, 0x3c, 0xa4, 0xb7, 0xd4, 0xee, 0x9f, 0xed, 0x4e, 0x25, 0xfc, 0x05, 0xe7, 0x05, 0x7f, 0x04, 0x9b, 0xe7, 0x1e, 0x0a, 0xc2, 0x93, 0x25, 0x9b, 0x2e, 0xd2, 0x4d, 0xfe, 0xe8, 0x0a, 0xe0, 0xee, 0x01, 0x04, 0x01, 0xc9, 0xe6, 0x0a, 0xd9, 0xfb, 0x2a, 0x46, 0xee, 0x2c, 0xfb, 0x37, 0xc2, 0xce, 0xf7, 0xd1, 0xed, 0xd4, 0xa6, 0xff, 0x19, 0x1d, 0xb7, 0xf9, 0xd2, 0xfb, 0x06, 0x1f, 0x7f, 0x63, 0xc0, 0xff, 0xa8, 0xb6, 0x1e, 0xf9, 0x81, 0xcd, 0xc4, 0x5a, 0x1f, 0xb5, 0x96, 0x33, 0x02, 0x20, 0x01, 0x1a, 0xc0, 0xdc, 0xec, 0x27, 0x51, 0x9e, 0xdc, 0xc9, 0xec, 0x13, 0x3b, 0xb5, 0x48, 0xfc, 0xec, 0x8d, 0xf7, 0xea, 0xe4, 0xfe, 0xeb, 0x0a, 0x07, 0x23, 0x0e, 0x0c, 0xd1, 0x46, 0xd0, 0xfc, 0xe9, 0xa5, 0x33, 0xe1, 0xbe, 0xdf, 0x81, 0xef, 0x52, 0x08, 0x0b, 0xdf, 0xf1, 0xac, 0x21, 0xef, 0xd5, 0x17, 0x37, 0x1c, 0xf2, 0xfe, 0x7b, 0xbe, 0x37, 0xcc, 0xed, 0x1d, 0x0b, 0xe9, 0x0b, 0xf7, 0x27, 0x88, 0x81, 0xfb, 0xbb, 0xc1, 0x24, 0xfd, 0x02, 0x13, 0xc0, 0x12, 0x01, 0x70, 0x5f, 0xa9, 0xf2, 0x2a, 0xfa, 0xad, 0xca, 0xb8, 0x62, 0x33, 0x92, 0x02, 0x2c, 0x1f, 0xa8, 0x66, 0xd7, 0xff, 0x20, 0x14, 0xf2, 0xe5, 0xcb, 0xf2, 0x22, 0xc1, 0x17, 0x0a, 0x28, 0xcf, 0xe7, 0xbb, 0x7f, 0xd5, 0xea, 0x27, 0xdd, 0xbe, 0xf9, 0xfc, 0x7f, 0xd3, 0x41, 0xf2, 0xed, 0x2b, 0xb9, 0x1c, 0xe9, 0x07, 0x2a, 0xed, 0xca, 0xe1, 0xdd, 0x08, 0x1e, 0xe1, 0x2c, 0xfa, 0xd4, 0xbd, 0x2e, 0xcb, 0xc8, 0xba, 0xd4, 0xc5, 0xeb, 0xf9, 0xe7, 0xf9, 0x26, 0xf8, 0x12, 0xea, 0xd6, 0xe8, 0xf7, 0xc5, 0x22, 0x11, 0xef, 0x39, 0xcb, 0x00, 0x02, 0xfa, 0x14, 0xb0, 0xad, 0xeb, 0x81, 0xf8, 0x17, 0x4b, 0x22, 0xcc, 0xd5, 0xc0, 0x09, 0xa4, 0x2d, 0xe6, 0x2a, 0x41, 0xc6, 0x3b, 0x5c, 0xe3, 0x3b, 0x2f, 0xf9, 0x1f, 0xd6, 0xf0, 0x32, 0x3b, 0x06, 0x0c, 0x3a, 0x0a, 0x57, 0xeb, 0xce, 0xe0, 0xe9, 0x81, 0xdd, 0xfd, 0x1d, 0xec, 0x10, 0x44, 0xf2, 0xfd, 0xaf, 0x1d, 0x0c, 0x12, 0xed, 0x0c, 0x0f, 0x39, 0x11, 0x0d, 0x7f, 0x36, 0x2a, 0xe9, 0x3d, 0x1f, 0xf3, 0xb7, 0x11, 0xc7, 0xbc, 0x5d, 0x1e, 0x87, 0xed, 0xe0, 0x0b, 0xf3, 0x44, 0xec, 0x50, 0xf2, 0x7f, 0xbd, 0x4c, 0x4c, 0xfa, 0xfd, 0xe3, 0x3a, 0x2b, 0x15, 0x29, 0xde, 0x1f, 0x16, 0x57, 0xcc, 0x58, 0x1c, 0x31, 0x02, 0x37, 0x57, 0xfb, 0xa0, 0x34, 0xe7, 0x25, 0x2d, 0x20, 0x06, 0xc8, 0xa6, 0x79, 0x06, 0x0f, 0x22, 0x05, 0x18, 0x89, 0x05, 0xbd, 0x13, 0xbd, 0xdc, 0xfa, 0xcb, 0x15, 0xc4, 0xf4, 0x81, 0x9c, 0x95, 0xce, 0x47, 0x98, 0xac, 0xc4, 0x60, 0xe2, 0x29, 0x48, 0xf4, 0x06, 0xd6, 0x2f, 0xd9, 0x8e, 0xe2, 0xf9, 0xb3, 0x88, 0x17, 0x30, 0xe9, 0xe7, 0xe3, 0xed, 0xfb, 0xf5, 0xaf, 0xc4, 0x1a, 0xea, 0x00, 0xc4, 0xbf, 0xcb, 0x81, 0x7d, 0x26, 0xc6, 0xdc, 0xed, 0xc3, 0xdd, 0xd9, 0xb1, 0x2e, 0x04, 0x13, 0x7f, 0xd6, 0xa4, 0xdb, 0x1e, 0x2d, 0xb1, 0xd5, 0xab, 0xee, 0x03, 0xe8, 0xf5, 0xcc, 0x42, 0x00, 0xfa, 0x30, 0x33, 0xc3, 0xc3, 0x33, 0x2b, 0x9a, 0xb7, 0x0f, 0xed, 0xe2, 0x17, 0x12, 0x14, 0xd7, 0xd2, 0x7f, 0xef, 0x0c, 0xdd, 0x2e, 0xbc, 0x34, 0x34, 0x10, 0x3b, 0x01, 0xfe, 0xe6, 0xe4, 0xfb, 0xf6, 0xec, 0x00, 0xde, 0x13, 0xfb, 0xf8, 0x09, 0xe8, 0xd8, };
const int32_t bias10[64] = {3145, -2791, 2876, 3305, 4595, 1704, -157, 1502, 862, 1454, 2094, -3540, 1479, -1361, 864, 2826, 1171, 2359, 1000, 2847, 2317, 1494, 2008, 2530, 291, 384, 2633, 2699, 915, 1211, 1026, 2007, -13, 1832, 1842, -893, 83, -1264, 3301, -1332, 139, 1583, 2229, 1299, 1589, 2826, -498, 149, 3483, 2169, 772, 2591, 1782, 443, 790, 1348, 2531, -105, 440, -2683, 3203, 3959, 2757, 627, };
const float scales10[64] = {0.006654640060136222, 0.0034684382282596763, 0.007105286484847957, 0.0053309983232487715, 0.0038251053317282027, 0.0071658526448842436, 0.006029756700426528, 0.006383290078839933, 0.005411989082911767, 0.008480923279359301, 0.0062283120706255034, 0.003862979678499062, 0.004614242161428852, 0.004469129192565275, 0.005160207028264909, 0.007803891455252667, 0.007038534497307514, 0.0054607166855857436, 0.00784088398636848, 0.006090605624491044, 0.005892418649179362, 0.007496966406848055, 0.0077993460963762026, 0.0068234217628318295, 0.003579210671931996, 0.007455180005171173, 0.006245511119765243, 0.007557816059685839, 0.006147702459382003, 0.005956671308795029, 0.005879083191523281, 0.00589597579150356, 0.005703844922054219, 0.005639578415746449, 0.007551330706368274, 0.0037074805973975607, 0.005812216057806394, 0.005667800524960897, 0.006581496002256599, 0.0058523069684738, 0.007190525263893815, 0.007298200785561078, 0.0045632662932211425, 0.006886021929060871, 0.009150560241109116, 0.005046592733231554, 0.005438605704615417, 0.004362265888705903, 0.004425177969893919, 0.0072791725155170696, 0.007365610126589829, 0.005370453379239295, 0.007679586785141734, 0.004966622984917913, 0.006416141720243373, 0.009196049539763922, 0.007035500614190194, 0.004598326482015175, 0.005751666659555285, 0.0037403428060133964, 0.00487157455328962, 0.00630124697057703, 0.0057073397542639496, 0.006829119312246002, };
const int32_t shift10[64] = {-7, -8, -7, -7, -8, -7, -7, -7, -7, -6, -7, -8, -7, -7, -7, -7, -7, -7, -6, -7, -7, -7, -7, -7, -8, -7, -7, -7, -7, -7, -7, -7, -7, -7, -7, -8, -7, -7, -7, -7, -7, -7, -7, -7, -6, -7, -7, -7, -7, -7, -7, -7, -7, -7, -7, -6, -7, -7, -7, -8, -7, -7, -7, -7, };
const int32_t multiplier10[64] = {1829213531, 1906794081, 1953086277, 1465373661, 2102873895, 1969734576, 1657446901, 1754625416, 1487636232, 1165609220, 1712025386, 2123695537, 1268353227, 1228464878, 1418426907, 2145117349, 1934737631, 1501030373, 1077642889, 1674172926, 1619695705, 2060750434, 2143867931, 1875607892, 1967691876, 2049264276, 1716753024, 2077476660, 1689867585, 1637357342, 1616030082, 1620673485, 1567860954, 1550195511, 2075693979, 2038209013, 1597649785, 1557953145, 1809107846, 1608669890, 1976516534, 2006114156, 1254341088, 1892815295, 1257643423, 1387196848, 1494952553, 1199090517, 1216383658, 2000883705, 2024643495, 1476218984, 2110948742, 1365214931, 1763655607, 1263895425, 1933903683, 1263978359, 1581006093, 2056275204, 1339088217, 1732073578, 1568821606, 1877174023, };
const unsigned char weight11[4096] = {0x3b, 0x3b, 0xf8, 0x0c, 0xf6, 0xa4, 0xf1, 0xc3, 0xbf, 0xde, 0xc0, 0x01, 0xa8, 0x22, 0xa9, 0xdc, 0xd7, 0x0d, 0x10, 0xd4, 0x06, 0xf5, 0xc4, 0xec, 0xe3, 0xac, 0xc9, 0x4d, 0x2e, 0x0b, 0x0b, 0x1a, 0x08, 0xc0, 0xee, 0x8b, 0xb8, 0xff, 0xe9, 0x48, 0xf0, 0x00, 0x06, 0x1f, 0xc5, 0xf8, 0xdf, 0xb1, 0xf2, 0xb5, 0xcf, 0xd6, 0x15, 0xad, 0x28, 0xed, 0xd3, 0x37, 0xe4, 0x81, 0xdc, 0x11, 0xaa, 0xe0, 0x0f, 0xf7, 0x25, 0xdb, 0xba, 0x39, 0xcf, 0x1d, 0x10, 0x07, 0x48, 0xe0, 0x4e, 0x62, 0xf1, 0xba, 0xfb, 0x1e, 0xdb, 0x25, 0xc2, 0x9e, 0xf7, 0x63, 0x1a, 0x00, 0xd0, 0xdd, 0xf4, 0xc2, 0x2b, 0x3f, 0xa8, 0x21, 0xd1, 0xcd, 0x0c, 0xda, 0xd3, 0x03, 0x35, 0xf4, 0xf0, 0x18, 0xe0, 0x1f, 0x4b, 0x0d, 0x08, 0x33, 0x3d, 0xbf, 0x0e, 0xa8, 0x59, 0x7f, 0xbd, 0x31, 0x20, 0xe9, 0x66, 0x47, 0xf2, 0x26, 0x24, 0x1e, 0x54, 0x05, 0xf9, 0xff, 0x5d, 0xd2, 0xb3, 0x15, 0x3a, 0xf1, 0x2b, 0x31, 0x13, 0x04, 0xf4, 0xf9, 0xf6, 0xfb, 0xc3, 0xf7, 0x17, 0xe6, 0x42, 0x17, 0x23, 0xca, 0xb5, 0xcb, 0x05, 0xb0, 0x21, 0xec, 0xb5, 0xf5, 0x3b, 0x05, 0x34, 0xfd, 0x2c, 0x15, 0xfd, 0xb4, 0x0c, 0x46, 0x12, 0xe3, 0xd1, 0x04, 0xec, 0xfb, 0x0c, 0xbc, 0xf7, 0x7f, 0x9d, 0xd5, 0xe4, 0x4a, 0xcb, 0xca, 0x3e, 0x17, 0xa7, 0x8c, 0xe8, 0x7f, 0xba, 0xf5, 0x55, 0xdb, 0xd6, 0xc2, 0xf7, 0x5f, 0x2c, 0x3e, 0xed, 0xf4, 0xf5, 0x43, 0xea, 0xba, 0xe7, 0x31, 0x6c, 0xe4, 0x86, 0xb1, 0xac, 0x29, 0x59, 0x2f, 0x29, 0x4d, 0x3d, 0x44, 0x40, 0x05, 0x36, 0xa7, 0xad, 0x22, 0x05, 0x9e, 0xb2, 0xa1, 0x47, 0x4e, 0xc5, 0x11, 0xe6, 0x69, 0x9b, 0xab, 0x8e, 0x38, 0xb4, 0x33, 0x37, 0xb5, 0xcf, 0xaf, 0x17, 0xd4, 0x2c, 0x02, 0xa1, 0xa7, 0xa2, 0x36, 0x1f, 0xf1, 0xba, 0x82, 0xd7, 0xa7, 0x89, 0x81, 0xaf, 0x83, 0x26, 0x2f, 0x2f, 0x8b, 0x49, 0x09, 0x44, 0xe6, 0x21, 0x97, 0x0d, 0x46, 0x28, 0x9e, 0xdd, 0xee, 0x2f, 0xd9, 0x10, 0xba, 0xf7, 0xf3, 0xad, 0xb2, 0x5b, 0x66, 0xed, 0x74, 0x58, 0xbe, 0xba, 0xaf, 0x11, 0xf0, 0xe8, 0x43, 0xdd, 0xce, 0xa2, 0xce, 0x5e, 0xd1, 0xee, 0x28, 0x95, 0xa4, 0x49, 0xda, 0xd4, 0xdc, 0xe5, 0x0e, 0x33, 0xab, 0x77, 0x86, 0x1d, 0xe4, 0xbb, 0x51, 0x87, 0x1b, 0x26, 0x75, 0x83, 0xee, 0x5c, 0x81, 0x11, 0xc1, 0x20, 0x99, 0x2d, 0x13, 0x47, 0xdd, 0xdc, 0xe3, 0x90, 0xc7, 0x26, 0xb9, 0x4c, 0xb7, 0xb9, 0xd5, 0xa7, 0x05, 0xad, 0x8c, 0xdb, 0x6f, 0x23, 0x4f, 0x07, 0xc8, 0x6b, 0xcc, 0x8e, 0x14, 0x26, 0xb3, 0x2c, 0xe9, 0xf2, 0x24, 0xf0, 0x8f, 0x1b, 0xd5, 0x4c, 0x18, 0x84, 0xab, 0xbd, 0x28, 0xd1, 0xca, 0x12, 0xe2, 0xc6, 0x64, 0xc1, 0xdd, 0x3d, 0x19, 0x48, 0xb3, 0x44, 0x06, 0xbe, 0xdc, 0x81, 0x5a, 0xf2, 0x8f, 0x4d, 0x37, 0x33, 0x6a, 0x65, 0x58, 0x64, 0x4f, 0x22, 0xec, 0xfa, 0x06, 0x2c, 0x0d, 0x43, 0xb7, 0xdc, 0x52, 0xf1, 0x1e, 0x9e, 0xba, 0x02, 0xf6, 0x76, 0x0b, 0x65, 0xe8, 0x1e, 0xb3, 0xf4, 0x92, 0x94, 0xb1, 0x12, 0x28, 0x24, 0xe5, 0x5a, 0x5c, 0x30, 0x60, 0x02, 0xef, 0x2f, 0x42, 0xe0, 0xb8, 0x34, 0xdc, 0xda, 0x3f, 0x11, 0xc8, 0xd0, 0x7f, 0x59, 0xb1, 0xfe, 0xed, 0x58, 0x9a, 0xff, 0x25, 0x4a, 0x19, 0xd5, 0xa7, 0x38, 0x5e, 0xd6, 0x8f, 0x3c, 0xaa, 0xc5, 0x23, 0xf3, 0x11, 0x6c, 0x0f, 0x46, 0xda, 0x70, 0x1a, 0x66, 0x46, 0xf5, 0x29, 0x68, 0x17, 0x30, 0xaf, 0x47, 0xad, 0x76, 0x33, 0x18, 0xb8, 0x58, 0x51, 0x71, 0x4d, 0x24, 0xe9, 0xd2, 0x2d, 0x0b, 0xe1, 0x12, 0x3b, 0xa4, 0x97, 0xc8, 0x4f, 0x22, 0x90, 0xdb, 0xe2, 0x02, 0x4e, 0xff, 0xbb, 0xee, 0xd6, 0xb3, 0x2c, 0x02, 0x2e, 0x3c, 0x18, 0x24, 0xbc, 0x35, 0x11, 0x43, 0x5b, 0xa1, 0x74, 0x42, 0x95, 0x13, 0x8c, 0x14, 0xfa, 0x92, 0x1a, 0xab, 0x70, 0x6d, 0x0e, 0x3c, 0x12, 0x5b, 0xe5, 0x27, 0xe6, 0xfe, 0xd2, 0xba, 0x42, 0x20, 0xd3, 0xae, 0x24, 0x81, 0xe0, 0x9b, 0x55, 0x49, 0x93, 0xbe, 0xd5, 0x3e, 0xc9, 0xce, 0xec, 0x2e, 0xce, 0x41, 0xcd, 0x07, 0x53, 0xd2, 0x7f, 0x28, 0xf0, 0x43, 0xd7, 0xfe, 0x32, 0x43, 0xc6, 0xe0, 0xc6, 0xa7, 0x33, 0xa4, 0xde, 0xcd, 0x06, 0x26, 0xa9, 0xe3, 0xfe, 0xd6, 0x0b, 0x2b, 0xac, 0x3d, 0x2e, 0xf9, 0x06, 0x06, 0x00, 0xd1, 0x4a, 0x1d, 0xb2, 0xb4, 0x35, 0x03, 0xe7, 0x66, 0x1f, 0x42, 0x51, 0xbb, 0x7a, 0xa9, 0xd8, 0x2b, 0xea, 0x54, 0xdc, 0x00, 0x04, 0x59, 0xf1, 0xf4, 0x51, 0x7f, 0x60, 0xad, 0xe0, 0xed, 0xea, 0x41, 0x3f, 0x12, 0x1c, 0x0a, 0x4c, 0x2c, 0xdf, 0xcb, 0x13, 0xf5, 0xaa, 0xb3, 0x17, 0xd8, 0xc3, 0x0a, 0x4c, 0x52, 0x2b, 0xc5, 0x58, 0x29, 0x49, 0xfd, 0xfe, 0xe9, 0xe5, 0x04, 0xea, 0x91, 0x34, 0xc1, 0xac, 0x2a, 0xc3, 0x55, 0x4d, 0xea, 0x0b, 0xd0, 0x02, 0x1c, 0xce, 0xfe, 0x28, 0xfb, 0x13, 0xab, 0xbb, 0x11, 0x63, 0xaa, 0x46, 0x0f, 0xcd, 0xef, 0x27, 0x10, 0x59, 0xde, 0xd8, 0x7f, 0xee, 0x4e, 0x6e, 0xfe, 0x9d, 0x87, 0x2d, 0x23, 0x2e, 0xa9, 0xe6, 0x66, 0x32, 0x6a, 0x4f, 0xde, 0xae, 0xbc, 0x18, 0xf2, 0xf1, 0x0e, 0x46, 0x21, 0x41, 0x0a, 0x42, 0xc3, 0xc9, 0xfc, 0xbb, 0x55, 0xef, 0x46, 0xf3, 0x11, 0xb9, 0xf3, 0x90, 0xda, 0x3d, 0xc1, 0x0b, 0x2e, 0xc1, 0xf6, 0x43, 0x5d, 0x11, 0x40, 0xfd, 0x21, 0x24, 0xb8, 0xf1, 0xda, 0x38, 0x1b, 0xfc, 0xe9, 0x13, 0xa9, 0x14, 0x35, 0x1b, 0xfc, 0x62, 0x13, 0xbc, 0x32, 0xc6, 0xf9, 0x4c, 0x0d, 0xe1, 0xdb, 0xeb, 0x03, 0xe5, 0x3d, 0xd2, 0x25, 0xaa, 0x16, 0x3e, 0xbf, 0xed, 0x17, 0xa6, 0xd6, 0x00, 0x2a, 0xe0, 0xf2, 0xae, 0xa3, 0x30, 0x4c, 0xdd, 0xf0, 0xf7, 0x22, 0x9b, 0xbe, 0xb3, 0xc4, 0xfe, 0x2c, 0x1d, 0x81, 0x60, 0x34, 0x2e, 0x3e, 0x0e, 0x42, 0xc5, 0xa4, 0xf3, 0x1e, 0xc0, 0x8f, 0xb2, 0xdc, 0x6f, 0x32, 0x30, 0x9e, 0xe6, 0xfe, 0xb5, 0xd9, 0x11, 0x48, 0xf4, 0x4b, 0x2a, 0xbb, 0x53, 0x61, 0xa4, 0xc8, 0x7f, 0xb8, 0x37, 0xd6, 0xe4, 0x03, 0x65, 0xcd, 0x18, 0x0d, 0xba, 0x1d, 0xaa, 0x9e, 0xd2, 0x00, 0x49, 0x99, 0xcb, 0x2b, 0x1f, 0x36, 0xc1, 0xd7, 0xff, 0xa0, 0x29, 0x99, 0x40, 0x1b, 0xdb, 0x22, 0x75, 0x31, 0x34, 0xab, 0x15, 0x35, 0xf7, 0x37, 0xdb, 0x43, 0xe4, 0x8f, 0x0f, 0x59, 0xe5, 0xff, 0xf2, 0xbd, 0x1d, 0x3d, 0x09, 0x55, 0x14, 0xbf, 0xb6, 0x0b, 0xad, 0x1c, 0x11, 0x0d, 0xcc, 0x59, 0x7f, 0x42, 0x10, 0xe4, 0x25, 0xca, 0xfd, 0xcc, 0xfc, 0x2d, 0x5f, 0x74, 0x25, 0x19, 0x29, 0x58, 0x06, 0xf8, 0xd9, 0xc4, 0xeb, 0x04, 0xe4, 0x18, 0x5c, 0x45, 0x01, 0x0e, 0x24, 0xc4, 0x28, 0x99, 0xcb, 0xff, 0xd5, 0xbc, 0xf7, 0x14, 0x17, 0x2d, 0xc5, 0xa4, 0xa3, 0x9a, 0xd8, 0x26, 0xb7, 0xc2, 0x18, 0x93, 0xf7, 0xc9, 0x20, 0x5b, 0xd9, 0x14, 0xa7, 0x3b, 0x57, 0xa0, 0x01, 0x36, 0x20, 0x4e, 0x20, 0xfc, 0xfe, 0xb2, 0xc9, 0x0a, 0xb4, 0x1c, 0x19, 0xc5, 0xe1, 0xad, 0x5e, 0x42, 0x19, 0xb6, 0x81, 0x3e, 0xee, 0x18, 0x16, 0x1b, 0xf8, 0x1c, 0x3a, 0x01, 0xc6, 0xf4, 0x19, 0x1b, 0x09, 0xdb, 0xa3, 0x35, 0xb3, 0xc5, 0x2d, 0x1e, 0x05, 0x50, 0x4f, 0xc4, 0x92, 0xad, 0xb9, 0xb4, 0x6b, 0xae, 0x72, 0x19, 0x3a, 0x0a, 0x49, 0x19, 0x9f, 0xec, 0x2b, 0x52, 0x21, 0xdb, 0x1d, 0xab, 0x4d, 0x67, 0x39, 0x06, 0x2a, 0xcc, 0x94, 0xdf, 0x3e, 0xc8, 0xd7, 0x03, 0xaf, 0x19, 0xb9, 0x09, 0xdd, 0xe9, 0x16, 0xa5, 0xcc, 0xd6, 0x41, 0x17, 0x3b, 0x06, 0x81, 0xbf, 0xd8, 0xd7, 0x28, 0x50, 0x13, 0xed, 0x24, 0x31, 0xfc, 0x04, 0xc4, 0xef, 0x79, 0xd2, 0x71, 0x17, 0xc9, 0x23, 0x1e, 0xcb, 0xed, 0xda, 0x3d, 0x5a, 0x06, 0x39, 0x52, 0xa5, 0x42, 0xe9, 0x51, 0x60, 0x8e, 0xa9, 0xe7, 0x07, 0xe9, 0xa1, 0x06, 0xbd, 0x2e, 0x4e, 0xd0, 0x48, 0x13, 0xc5, 0x08, 0x0a, 0x38, 0xc7, 0x55, 0xce, 0x81, 0xc3, 0x8c, 0x24, 0x02, 0xfd, 0xa3, 0x40, 0x22, 0xde, 0x09, 0x2a, 0xba, 0x03, 0xc9, 0x7c, 0x2e, 0x9e, 0x50, 0x11, 0x01, 0x1c, 0xfd, 0x4a, 0x33, 0x10, 0xd6, 0x10, 0x8f, 0xc1, 0x53, 0xb0, 0x08, 0xd6, 0x52, 0xc0, 0x14, 0xf0, 0x76, 0x08, 0xb3, 0xd3, 0x42, 0xfb, 0x07, 0x51, 0x2e, 0xeb, 0xb2, 0x88, 0x33, 0x5b, 0xd4, 0xc4, 0x06, 0xdd, 0x59, 0x00, 0xfe, 0x8e, 0x47, 0x16, 0x2b, 0x63, 0x2b, 0x20, 0xf4, 0xb1, 0x7f, 0x58, 0xed, 0x76, 0x74, 0x42, 0x18, 0x1a, 0xef, 0x3c, 0x62, 0xea, 0x28, 0x88, 0x42, 0x6a, 0x5d, 0x5b, 0x33, 0xea, 0x5e, 0x57, 0x7a, 0xbc, 0xb5, 0x92, 0x0d, 0x76, 0xb4, 0x2a, 0xff, 0xa3, 0xf7, 0x0c, 0xd1, 0xd6, 0x51, 0xf6, 0xd8, 0xd9, 0xfb, 0xd0, 0xb8, 0x55, 0xe9, 0xa0, 0xec, 0xe2, 0xc7, 0x21, 0x65, 0xbc, 0xe6, 0x60, 0xc7, 0xab, 0x48, 0x12, 0x11, 0x4e, 0xb7, 0xe3, 0x41, 0x96, 0xfa, 0x44, 0xb8, 0x9f, 0xc9, 0xa0, 0x93, 0xf1, 0xaf, 0xdc, 0x07, 0x62, 0x7f, 0x31, 0x28, 0x58, 0xe9, 0xb6, 0x38, 0x25, 0x1b, 0x47, 0xe5, 0x57, 0x27, 0xc8, 0x4e, 0x2d, 0x0d, 0xfa, 0x4e, 0x01, 0x2c, 0x60, 0x02, 0x72, 0xbc, 0x03, 0xf6, 0xfd, 0xa3, 0x5f, 0xca, 0x54, 0xd2, 0x3e, 0xd8, 0xd0, 0x0e, 0x53, 0xef, 0x33, 0xb1, 0x14, 0xf9, 0xee, 0x4e, 0xf6, 0xcc, 0xdd, 0x3a, 0x7f, 0x5a, 0x45, 0xa9, 0x66, 0x2f, 0x0a, 0xc3, 0xbd, 0x17, 0xe9, 0xe6, 0xc7, 0x5b, 0x1c, 0x23, 0xf2, 0x3c, 0xdb, 0x19, 0x7c, 0xf2, 0x9b, 0xb8, 0x0b, 0x0a, 0x14, 0xdb, 0xcc, 0xb9, 0xfb, 0xfa, 0x46, 0xd7, 0xc1, 0x2f, 0xd0, 0x08, 0x7f, 0x30, 0xa2, 0xf7, 0xef, 0x57, 0xcc, 0x24, 0x91, 0x90, 0xcc, 0xa4, 0xf7, 0x23, 0xe6, 0xba, 0xfe, 0xa3, 0x20, 0x0c, 0x18, 0x23, 0x22, 0x40, 0x42, 0xd5, 0xac, 0x2f, 0x0c, 0x20, 0x00, 0x14, 0x50, 0x47, 0x22, 0xa9, 0x04, 0xc3, 0xe8, 0x28, 0xc1, 0x77, 0x28, 0x2c, 0xe8, 0xe9, 0x53, 0x0b, 0x3b, 0xf7, 0xda, 0x52, 0x17, 0x26, 0xa1, 0xc7, 0x67, 0x1c, 0x4e, 0x9f, 0xc5, 0x06, 0xd1, 0x69, 0x4e, 0x44, 0x13, 0x8a, 0xdb, 0x24, 0xd9, 0x15, 0xda, 0x3f, 0x59, 0x7f, 0x1e, 0xa6, 0xdd, 0xc6, 0x5d, 0xdc, 0x23, 0x3b, 0xce, 0x17, 0x07, 0x25, 0xc7, 0xfb, 0x5b, 0x21, 0xab, 0x54, 0xff, 0x50, 0x0e, 0x7d, 0x1f, 0xe7, 0x2d, 0x52, 0xc9, 0xfc, 0x3b, 0xfb, 0x12, 0x52, 0xc7, 0x46, 0xc1, 0x37, 0xcf, 0x0a, 0x3d, 0x9c, 0xd3, 0xd4, 0x2a, 0xf3, 0xaa, 0xda, 0x23, 0x2f, 0xa9, 0xbd, 0x37, 0xbd, 0xed, 0x81, 0xef, 0x8e, 0x2c, 0x3e, 0x2e, 0xb7, 0x36, 0xa5, 0xc1, 0x22, 0x50, 0x24, 0xe4, 0xa4, 0xa4, 0xf8, 0xa2, 0xa8, 0x2f, 0xe8, 0x15, 0xbb, 0x0b, 0x67, 0x1e, 0x08, 0xb2, 0xa2, 0x18, 0xba, 0xe3, 0x98, 0xff, 0xbf, 0x25, 0x10, 0xaa, 0xd2, 0xc5, 0xde, 0xf4, 0x02, 0xce, 0x0c, 0xb2, 0x4d, 0xc3, 0x36, 0xbd, 0xb4, 0xe4, 0xb1, 0xd7, 0xd9, 0xef, 0x89, 0x75, 0x41, 0xd2, 0x33, 0xee, 0x86, 0x2a, 0xd8, 0x55, 0xd9, 0xa9, 0x44, 0x06, 0x25, 0x07, 0x95, 0x1a, 0xee, 0xaa, 0x3c, 0x99, 0xa7, 0xf0, 0x81, 0x9e, 0xed, 0xf3, 0x69, 0x11, 0x6d, 0x53, 0x00, 0x07, 0xc2, 0x8d, 0xa7, 0x19, 0xba, 0xd9, 0x25, 0xa8, 0x20, 0x07, 0x1b, 0xd5, 0x3f, 0x89, 0x97, 0x61, 0xc3, 0x74, 0x0a, 0xf0, 0xe2, 0x1b, 0x17, 0xd2, 0x2e, 0x19, 0xf4, 0x14, 0xf8, 0xfc, 0xc2, 0xdc, 0xd5, 0xf3, 0x40, 0x61, 0xbd, 0xc2, 0x24, 0xec, 0xd7, 0x26, 0x5a, 0x3a, 0x04, 0xc3, 0x20, 0x30, 0x9b, 0xa5, 0x3f, 0x9d, 0x30, 0x25, 0x4a, 0x0f, 0x19, 0x18, 0x38, 0xf7, 0xc5, 0x4d, 0x07, 0x36, 0xc2, 0xe8, 0xbc, 0xf3, 0x46, 0x34, 0x4b, 0x35, 0xaa, 0x31, 0x07, 0x60, 0x22, 0xea, 0x7f, 0x86, 0x19, 0xee, 0x2e, 0x2f, 0x5a, 0xeb, 0x26, 0x27, 0x7e, 0x24, 0x93, 0x9e, 0xa9, 0xaf, 0xb1, 0xef, 0x7a, 0xca, 0x4b, 0xd0, 0x7e, 0x2a, 0x10, 0x57, 0xa6, 0xba, 0xea, 0x1d, 0x4c, 0x2d, 0x2b, 0x0f, 0xa5, 0x63, 0x9f, 0xaf, 0x33, 0x5c, 0x1d, 0xf1, 0xf7, 0x00, 0xca, 0x70, 0x76, 0xe7, 0x2a, 0xee, 0xb1, 0x0f, 0xea, 0x61, 0xf9, 0x15, 0xc6, 0x3c, 0x35, 0x07, 0xef, 0xf5, 0x1b, 0x7d, 0xff, 0xff, 0xb3, 0x32, 0xf8, 0x1f, 0xd5, 0x52, 0x7f, 0xd4, 0xef, 0x2e, 0x23, 0xb6, 0x38, 0x24, 0x46, 0xc0, 0xd6, 0x3c, 0x0e, 0xd1, 0x74, 0x00, 0xc8, 0xe9, 0xc6, 0xde, 0xb4, 0x5a, 0x55, 0x9f, 0x48, 0x34, 0xde, 0xd4, 0x04, 0x12, 0x54, 0x76, 0x06, 0x66, 0xd8, 0xfc, 0xb0, 0x43, 0x1c, 0xc8, 0xa0, 0xee, 0xcc, 0xcc, 0xac, 0xc7, 0x4a, 0xd3, 0x3f, 0xf9, 0xdf, 0x22, 0x5c, 0x30, 0x02, 0x6a, 0x25, 0xfb, 0x7f, 0xc1, 0x60, 0xe9, 0x01, 0xc1, 0x59, 0xac, 0xfd, 0x16, 0xd6, 0xff, 0x7f, 0xd0, 0xc0, 0xae, 0x6a, 0x15, 0xde, 0xb2, 0x72, 0x65, 0xb8, 0x11, 0xe0, 0x31, 0xd7, 0x40, 0x4c, 0x2a, 0xe7, 0x3f, 0x14, 0xc7, 0xcd, 0x99, 0x38, 0xf5, 0x4c, 0xe6, 0xf4, 0x29, 0x1f, 0xdd, 0x22, 0xe4, 0xa9, 0xd8, 0x16, 0x00, 0xd4, 0x2f, 0xdc, 0xde, 0x4d, 0xdd, 0xdd, 0x34, 0x5f, 0xc0, 0x51, 0x6f, 0xbd, 0x8f, 0xe1, 0x22, 0x1c, 0x2e, 0x15, 0x0c, 0xd0, 0x65, 0x53, 0x58, 0x13, 0xa9, 0x1d, 0xcb, 0x6c, 0x9c, 0x72, 0x49, 0xd7, 0x9b, 0x49, 0xb8, 0xb1, 0xbb, 0x5e, 0x9f, 0xf5, 0xd7, 0x3a, 0x36, 0x30, 0xe3, 0xef, 0x21, 0x0f, 0x51, 0x8b, 0xe6, 0x2e, 0x09, 0x7f, 0xdc, 0x72, 0x45, 0xcf, 0xb8, 0x14, 0xdf, 0xb4, 0xb0, 0x00, 0x29, 0x59, 0xe1, 0xe5, 0xb2, 0xa8, 0x49, 0xc8, 0xc1, 0x3f, 0x36, 0x9e, 0xd5, 0x47, 0x1e, 0xae, 0xa6, 0x9d, 0x33, 0xbb, 0xb6, 0x7f, 0x2a, 0xd2, 0xf6, 0xde, 0xeb, 0x8f, 0x44, 0xcf, 0xed, 0x57, 0xd7, 0xf0, 0x12, 0x92, 0xb3, 0xa9, 0x0f, 0xfa, 0x41, 0x37, 0x68, 0xb6, 0xe1, 0x30, 0x2a, 0xbc, 0x40, 0xc8, 0x52, 0x9d, 0x3c, 0xf3, 0xa8, 0x50, 0xc8, 0xf0, 0x00, 0xe2, 0x23, 0x23, 0xdf, 0x4d, 0x5d, 0xf3, 0x12, 0xcb, 0xa6, 0xbb, 0xb4, 0x9e, 0x46, 0xf4, 0xcb, 0x6d, 0x14, 0x52, 0x0c, 0x14, 0x5a, 0xb2, 0x0b, 0x69, 0x3d, 0x22, 0x16, 0x10, 0xf9, 0x0e, 0x6e, 0x5f, 0xd0, 0x72, 0xeb, 0x26, 0x7f, 0x13, 0x45, 0xe6, 0xcb, 0xdd, 0x4a, 0x52, 0xd7, 0x45, 0xf9, 0x52, 0x7d, 0xd7, 0x58, 0xe0, 0x08, 0xf4, 0xeb, 0xed, 0x9f, 0x2a, 0x36, 0x49, 0xa2, 0x52, 0x03, 0x19, 0xda, 0x03, 0xa7, 0xfe, 0x53, 0x36, 0x11, 0x6b, 0xe3, 0xb1, 0x13, 0x08, 0xf5, 0x40, 0x61, 0x59, 0xb3, 0xdf, 0x68, 0xf0, 0x49, 0xa3, 0x2b, 0x20, 0x7f, 0x49, 0x82, 0x53, 0x8c, 0xe4, 0x47, 0xb0, 0x29, 0x0e, 0x19, 0xb4, 0x59, 0x20, 0x4a, 0xf4, 0xc6, 0xbd, 0x61, 0x92, 0xcf, 0x87, 0xac, 0x00, 0xf6, 0x1c, 0x55, 0x14, 0x6f, 0x0d, 0x6d, 0x0c, 0xfe, 0x1b, 0x8b, 0x7e, 0x68, 0xbc, 0xcc, 0x75, 0x35, 0xcd, 0xbc, 0xf9, 0xfe, 0x71, 0xc9, 0x25, 0x0c, 0xc3, 0xfb, 0x0c, 0x65, 0x4c, 0x01, 0xce, 0x9a, 0xd8, 0x74, 0x70, 0x26, 0x8b, 0x28, 0xfc, 0x32, 0x47, 0x38, 0xf3, 0xfb, 0x20, 0x6b, 0x49, 0x2e, 0xec, 0xd8, 0x7f, 0xb4, 0x29, 0x58, 0x22, 0xb6, 0xda, 0xf2, 0xc3, 0x93, 0x34, 0x87, 0xd4, 0x42, 0x39, 0xe6, 0xa9, 0xc5, 0xec, 0xd2, 0x05, 0x1d, 0x56, 0x5a, 0x10, 0x4b, 0x12, 0x29, 0xd1, 0x58, 0xf8, 0x2d, 0x42, 0xbf, 0x53, 0xd7, 0x5b, 0xe7, 0xa0, 0xdd, 0x44, 0x53, 0x9d, 0xc3, 0x4a, 0x9a, 0x18, 0xfa, 0x20, 0xd7, 0x1e, 0x0f, 0x11, 0xa5, 0x34, 0x55, 0xa4, 0x6c, 0x98, 0x14, 0x0a, 0xd7, 0xb3, 0x4c, 0xff, 0xe8, 0xd7, 0x4b, 0x6d, 0xbf, 0xa1, 0xa8, 0xb2, 0xa5, 0xe2, 0xd3, 0x04, 0x09, 0x40, 0xc8, 0xb4, 0xe4, 0xb1, 0xf0, 0xbb, 0xdf, 0xf2, 0xb0, 0xb5, 0x2a, 0xd3, 0x98, 0x4a, 0xc4, 0x1d, 0x67, 0x18, 0x8c, 0x75, 0xce, 0x0e, 0x3a, 0x29, 0x4c, 0xc8, 0x32, 0x45, 0x81, 0xc7, 0x7f, 0xa2, 0x8d, 0x22, 0x0b, 0x0c, 0x3b, 0xed, 0x45, 0xe1, 0xce, 0xca, 0x44, 0xc6, 0x4b, 0x07, 0xa6, 0xdd, 0x4a, 0x27, 0xf9, 0x2f, 0x26, 0xbb, 0xb1, 0xcf, 0xcd, 0xe3, 0xef, 0xb2, 0x5e, 0xe2, 0xf5, 0xd7, 0xb4, 0x98, 0x0f, 0xd7, 0xce, 0x14, 0x13, 0x2e, 0xd7, 0x74, 0xe4, 0xdc, 0x18, 0xc6, 0x7f, 0xdf, 0x9c, 0xd7, 0x46, 0x1b, 0xc2, 0xf0, 0xcc, 0xdd, 0x8d, 0x19, 0x31, 0x24, 0x18, 0x12, 0xb8, 0x46, 0x06, 0xe8, 0x15, 0x9f, 0xc9, 0xfd, 0xc1, 0x2a, 0x14, 0xe5, 0xc6, 0x12, 0x1d, 0xc4, 0x32, 0x64, 0x4c, 0xdf, 0x69, 0xe6, 0xc7, 0x2d, 0xb3, 0x47, 0x4b, 0xb4, 0x4e, 0xdd, 0xf5, 0xf8, 0x25, 0xbe, 0x5c, 0x36, 0xbe, 0x2b, 0x3e, 0x26, 0xed, 0x23, 0x02, 0x61, 0x1d, 0x71, 0x16, 0x1a, 0x01, 0xe0, 0x9d, 0x4c, 0xc4, 0x22, 0x30, 0x4e, 0x8b, 0xdf, 0x8a, 0xc6, 0x3b, 0xd5, 0x42, 0x57, 0xdf, 0xf5, 0x7f, 0x5e, 0x25, 0xa6, 0x1b, 0xf6, 0xa9, 0x0d, 0x1d, 0xf4, 0x5d, 0x3b, 0x3b, 0x0d, 0xea, 0x36, 0xab, 0x76, 0x15, 0x95, 0xb9, 0x3b, 0x1b, 0x2e, 0x92, 0x1b, 0x5f, 0x30, 0x08, 0x94, 0x79, 0x30, 0x20, 0x44, 0x3c, 0xed, 0x3a, 0x48, 0x1f, 0xb7, 0x4d, 0xc6, 0x63, 0xb0, 0x03, 0xca, 0xba, 0xd3, 0x3f, 0x28, 0x00, 0x93, 0xd1, 0x4a, 0xbb, 0x97, 0xba, 0xc6, 0xe7, 0x33, 0xf7, 0x7f, 0x84, 0xbf, 0x17, 0x4f, 0xeb, 0x3c, 0xb1, 0xc2, 0x10, 0xf9, 0xb8, 0xdf, 0x37, 0x11, 0xed, 0xe8, 0xb3, 0x31, 0xe8, 0xf5, 0xf9, 0x34, 0x0f, 0x02, 0x9c, 0xd4, 0xcf, 0xed, 0xbc, 0x1f, 0xca, 0xca, 0xf8, 0xd0, 0xf7, 0xac, 0xd3, 0xfb, 0x48, 0xbb, 0x0f, 0x28, 0x3b, 0x10, 0x69, 0xb7, 0x1b, 0x9f, 0x10, 0xc3, 0xda, 0x2d, 0x3a, 0xd2, 0xd5, 0x47, 0xc9, 0xbe, 0xbf, 0x4e, 0x26, 0x0a, 0xbe, 0x1f, 0x81, 0xe8, 0x2a, 0x40, 0x16, 0x0e, 0x11, 0x1f, 0x5d, 0xc3, 0x21, 0xd9, 0x04, 0xfd, 0x5f, 0xee, 0xf4, 0xc8, 0xca, 0x0a, 0xef, 0xc0, 0xf9, 0x22, 0xf3, 0x34, 0x53, 0xfe, 0xbb, 0xd6, 0x5c, 0x10, 0x81, 0xe8, 0x0b, 0x20, 0x46, 0xf5, 0xe9, 0x50, 0xf2, 0xfd, 0xd2, 0xc9, 0x9b, 0x16, 0xb7, 0x4b, 0xce, 0xc2, 0xf8, 0xf6, 0xb6, 0x49, 0x02, 0xeb, 0x20, 0xce, 0x1a, 0x6e, 0xe6, 0x26, 0x4d, 0xed, 0x49, 0xc8, 0xd8, 0xf9, 0xd3, 0xee, 0x12, 0xec, 0xbe, 0xed, 0xce, 0x4d, 0xea, 0x13, 0xdb, 0xf1, 0xb9, 0x1e, 0x7f, 0x5e, 0xf7, 0xf9, 0xba, 0xd6, 0x1d, 0xaf, 0x50, 0xec, 0x67, 0xe4, 0x15, 0x2d, 0x66, 0x48, 0x3f, 0x9b, 0x32, 0xb9, 0x4b, 0x42, 0x08, 0x18, 0x0d, 0x5c, 0x3f, 0x38, 0xf0, 0x06, 0x4d, 0xa6, 0x11, 0xeb, 0x67, 0x4e, 0xee, 0x46, 0xf6, 0x37, 0x41, 0xd1, 0x09, 0xdc, 0x53, 0x16, 0xb2, 0x6b, 0x67, 0x66, 0x2d, 0x36, 0x09, 0xb1, 0x9a, 0xd3, 0xcf, 0x37, 0xdb, 0xe1, 0x42, 0xf7, 0xd1, 0xcf, 0x3b, 0x39, 0xf2, 0x19, 0x10, 0x2c, 0xb4, 0xcd, 0xd4, 0x69, 0x0b, 0x21, 0x00, 0xf6, 0x5a, 0xf6, 0x3a, 0x36, 0x16, 0x31, 0x02, 0x38, 0xc1, 0x4d, 0xfc, 0x2b, 0x3a, 0xd1, 0x51, 0xff, 0x6c, 0xf0, 0xca, 0x24, 0x09, 0xb4, 0x29, 0xb8, 0xa8, 0xa8, 0xde, 0xde, 0x11, 0xbd, 0xbe, 0x33, 0xe8, 0x7c, 0x1f, 0x7f, 0xd6, 0x18, 0x9a, 0x7a, 0xcf, 0x40, 0x0a, 0xc7, 0xde, 0xd9, 0x43, 0x55, 0x5b, 0x05, 0x01, 0xcd, 0xfb, 0x23, 0xf3, 0xb9, 0x0b, 0xf9, 0x9a, 0xde, 0xf4, 0x88, 0x12, 0x15, 0xef, 0xea, 0xf9, 0x2b, 0xc2, 0xe0, 0x3b, 0xde, 0xe9, 0x9b, 0xb6, 0x05, 0xe7, 0x69, 0xe3, 0x90, 0x5f, 0xbd, 0x5d, 0xf5, 0x22, 0x82, 0x6a, 0x13, 0xbb, 0x93, 0x07, 0x89, 0x52, 0x3d, 0x60, 0x7f, 0x9e, 0xe6, 0x4b, 0x41, 0x65, 0xd0, 0x03, 0xef, 0x2f, 0xda, 0x55, 0xd2, 0x18, 0x24, 0xd0, 0x0e, 0xc2, 0x37, 0x6c, 0xcd, 0xed, 0xd5, 0x36, 0xdd, 0xb9, 0x40, 0x33, 0xf9, 0xfa, 0xf3, 0x5b, 0x2a, 0x02, 0xf8, 0x11, 0xc0, 0x20, 0x0f, 0x0a, 0x24, 0xf1, 0xa5, 0xaa, 0x64, 0xe7, 0xb5, 0x5a, 0xa2, 0x7f, 0x47, 0xe1, 0x2c, 0x5a, 0x95, 0xcd, 0x12, 0x0a, 0xb0, 0xa1, 0x3d, 0x0d, 0x98, 0x1b, 0xd4, 0xb3, 0xfa, 0x6b, 0x19, 0x52, 0xdf, 0x49, 0x99, 0x38, 0xf0, 0x42, 0x65, 0xf6, 0xcd, 0xa3, 0x2b, 0xcf, 0x4b, 0xa6, 0xba, 0x62, 0xde, 0x87, 0x76, 0xed, 0x20, 0x2c, 0x33, 0xa9, 0x10, 0x72, 0xed, 0x44, 0x77, 0x2d, 0x81, 0x6c, 0x58, 0x27, 0xea, 0x9f, 0x39, 0xdc, 0x56, 0xad, 0x09, 0xd9, 0xfc, 0xda, 0x2c, 0x96, 0xff, 0xb7, 0x29, 0xdc, 0x16, 0x47, 0xc0, 0x9f, 0xb2, 0x44, 0x9f, 0x31, 0xd8, 0xf9, 0x2d, 0xcf, 0x99, 0x14, 0x3b, 0x21, 0xf5, 0x11, 0x00, 0x01, 0xd7, 0x4a, 0xe7, 0xd3, 0xd7, 0x09, 0xb0, 0xb1, 0x13, 0x40, 0x81, 0x55, 0xc5, 0x06, 0x3e, 0xbd, 0xa5, 0x07, 0xd4, 0xdd, 0xc6, 0xdb, 0x31, 0x29, 0xfb, 0x4e, 0x42, 0xda, 0x2f, 0xe4, 0xf3, 0xf4, 0x0d, 0xbc, 0xf1, 0xc3, 0xbb, 0xd5, 0x09, 0x07, 0xf9, 0x1c, 0x37, 0x18, 0x10, 0xfc, 0x1a, 0xc3, 0x0f, 0xee, 0xad, 0x2e, 0xfd, 0x40, 0x04, 0xcf, 0xec, 0xba, 0xc1, 0x13, 0xfd, 0xde, 0xc0, 0x3e, 0xcf, 0xb8, 0xaf, 0x4b, 0x2e, 0x7f, 0xa1, 0x09, 0xf4, 0x13, 0xfc, 0xc1, 0xa3, 0xd9, 0xfa, 0x0e, 0xdc, 0x87, 0x3d, 0xa3, 0x11, 0x92, 0x3d, 0x5b, 0xbf, 0x5b, 0xde, 0x91, 0xeb, 0xbc, 0x00, 0x22, 0xd1, 0xbd, 0x33, 0xd3, 0x2f, 0xba, 0x3e, 0xc3, 0xb4, 0xfd, 0x13, 0x97, 0x3f, 0xce, 0x49, 0xed, 0x6f, 0xc2, 0xb8, 0x95, 0xd4, 0xba, 0x29, 0xb8, 0xd7, 0xcc, 0xcf, 0x08, 0x32, 0xd8, 0xa9, 0x53, 0xca, 0x3e, 0xfa, 0xf7, 0x68, 0x06, 0xc1, 0xa9, 0xaa, 0xb8, 0x2b, 0x1d, 0x4c, 0xab, 0x5b, 0x3f, 0x3a, 0xd0, 0xaf, 0x6e, 0x0b, 0x13, 0x1f, 0x34, 0xa0, 0x35, 0xc6, 0x5b, 0xb9, 0xe0, 0x30, 0x2f, 0x1f, 0x0a, 0x0c, 0xcb, 0xf7, 0x1b, 0x58, 0xb1, 0xe0, 0xaf, 0xca, 0xc1, 0xfb, 0x21, 0xd4, 0x11, 0xda, 0xa5, 0x10, 0x02, 0xbb, 0x81, 0x3a, 0xd6, 0x12, 0xf1, 0xf5, 0xe4, 0x3e, 0xb8, 0xf3, 0xe6, 0xc8, 0x27, 0x56, 0x64, 0xc7, 0xcd, 0x03, 0x2d, 0xa2, 0xe8, 0xee, 0xf5, 0xc8, 0xc0, 0xd1, 0xf9, 0x0d, 0xc8, 0xc0, 0x51, 0xdf, 0x41, 0xc4, 0xd5, 0x0b, 0x0f, 0xaf, 0x60, 0xdd, 0xfc, 0xe5, 0x21, 0x2b, 0x34, 0x29, 0x54, 0x2d, 0x66, 0xd2, 0x99, 0x41, 0xd6, 0x93, 0x23, 0xfe, 0xa5, 0x4e, 0x03, 0xe5, 0x60, 0x1d, 0xc6, 0x12, 0x81, 0xc4, 0x18, 0x34, 0xe7, 0xec, 0xaf, 0xbf, 0x0b, 0x0a, 0x40, 0x49, 0x56, 0x14, 0xb4, 0xe4, 0x97, 0x06, 0x3f, 0x29, 0x35, 0x77, 0x15, 0xdd, 0x6e, 0x4f, 0xb5, 0x26, 0x3e, 0x21, 0x7f, 0xb3, 0x0e, 0x70, 0xb4, 0xbe, 0x41, 0x31, 0x7c, 0xe4, 0x3f, 0x9d, 0xcb, 0xfc, 0xb3, 0xee, 0xc8, 0x5a, 0xdd, 0x23, 0x10, 0x68, 0x0a, 0x43, 0xc1, 0xb5, 0x32, 0x42, 0xbe, 0x3f, 0x1b, 0xb5, 0x3e, 0x60, 0xe9, 0x4e, 0xe3, 0x99, 0xb0, 0xd8, 0x75, 0x54, 0x49, 0x4f, 0x20, 0xab, 0x85, 0xe4, 0xe3, 0x56, 0xea, 0x29, 0x24, 0x7f, 0xf0, 0x71, 0xd0, 0x9d, 0xe6, 0x21, 0x46, 0x49, 0x58, 0xb2, 0x1c, 0x49, 0xe0, 0x3f, 0xa0, 0x27, 0x35, 0x46, 0x03, 0xe2, 0xb5, 0x72, 0xe5, 0x05, 0x0d, 0x18, 0xd5, 0xa7, 0xe8, 0x0f, 0xf0, 0xe9, 0x30, 0xe5, 0x54, 0xc9, 0x5a, 0xf4, 0x41, 0x2e, 0xcf, 0x48, 0xf4, 0xe6, 0xf8, 0x25, 0xe8, 0xf9, 0x7c, 0x98, 0x08, 0x21, 0xab, 0x3b, 0xac, 0xeb, 0xd3, 0x2c, 0x13, 0xa6, 0xf6, 0x70, 0xe3, 0x5d, 0x5e, 0x01, 0xef, 0x4b, 0x09, 0xfc, 0xf9, 0x35, 0xb2, 0xb3, 0x60, 0x3e, 0x08, 0x46, 0xd4, 0x26, 0xc2, 0x3e, 0x26, 0x17, 0xef, 0x56, 0x2f, 0x4e, 0xd9, 0x02, 0x04, 0xb3, 0x49, 0x53, 0x28, 0xee, 0x31, 0xe8, 0x61, 0x9e, 0x0c, 0x81, 0x20, 0x3c, 0x70, 0xdd, 0x10, 0x46, 0x94, 0x6f, 0x3f, 0x48, 0x06, 0x57, 0xc7, 0xb6, 0xe6, 0xf0, 0x11, 0x08, 0x12, 0x17, 0x5b, 0x40, 0x81, 0x29, 0x09, 0x16, 0x2b, 0x15, 0x04, 0xe7, 0xef, 0x9e, 0xd8, 0xa4, 0x21, 0xbb, 0x08, 0xb0, 0x3c, 0xe3, 0xbe, 0x08, 0xc7, 0xab, 0x08, 0xe1, 0xe0, 0x46, 0xbc, 0x6c, 0xd5, 0x3c, 0x51, 0xc4, 0xe0, 0xe6, 0x15, 0xf2, 0x13, 0x1a, 0xb2, 0xd6, 0xf7, 0xe0, 0xcd, 0x21, 0x29, 0xc9, 0xc9, 0x2e, 0xe6, 0x08, 0x63, 0x1a, 0xd1, 0xbd, 0xe7, 0xf6, 0xc4, 0xb5, 0x81, 0x2c, 0x5f, 0x43, 0x9b, 0x55, 0xc8, 0x9a, 0x32, 0x3f, 0xe9, 0xc5, 0xe8, 0x10, 0x2f, 0xd7, 0xef, 0x02, 0x0b, 0x32, 0xf9, 0x18, 0x1f, 0xac, 0x51, 0x00, 0xaf, 0x51, 0xae, 0xb0, 0xdf, 0x45, 0xb0, 0xf4, 0xa1, 0x16, 0x3e, 0xe1, 0x8e, 0xbe, 0xdb, 0xb8, 0xb7, 0x39, 0x07, 0x91, 0x14, 0xb2, 0x58, 0xe3, 0x4a, 0x50, 0xb6, 0x21, 0xc8, 0x84, 0x2c, 0xa9, 0x99, 0xc1, 0xc7, 0x84, 0xf9, 0xe2, 0xe7, 0x2e, 0xa5, 0x38, 0x7f, 0xf4, 0xe9, 0xd7, 0x7b, 0x72, 0x0c, 0x60, 0xb7, 0xbe, 0x47, 0x97, 0x09, 0xde, 0xb1, 0xfc, 0xef, 0x0e, 0xf8, 0x0d, 0x06, 0xaa, 0x35, 0x29, 0xd5, 0x11, 0xd8, 0x3d, 0xc8, 0x59, 0xda, 0xf2, 0x38, 0x0a, 0x02, 0x3c, 0x07, 0x45, 0xfd, 0x05, 0x23, 0x3f, 0x42, 0x27, 0x52, 0xef, 0xe8, 0x01, 0x22, 0x15, 0x9f, 0x1d, 0x30, 0x59, 0x39, 0x0b, 0x30, 0x20, 0x3a, 0xcc, 0x0f, 0xbc, 0x0b, 0x02, 0xf6, 0xd7, 0xfa, 0x37, 0x33, 0xad, 0x07, 0xec, 0xff, 0x0b, 0xfb, 0x14, 0xe4, 0x2d, 0xdb, 0x08, 0x0f, 0x0d, 0x0d, 0x15, 0x05, 0xcd, 0xd8, 0xb9, 0x1c, 0x21, 0xc5, 0x32, 0xbf, 0x32, 0xd5, 0xe5, 0x00, 0xca, 0x3b, 0xd4, 0xf9, 0x08, 0x17, 0xa3, 0xec, 0x0a, 0xec, 0x0d, 0xfe, 0xfa, 0x05, 0xa7, 0x30, 0x28, 0x81, 0x01, 0x33, 0xfe, 0x22, 0xf5, 0xf7, 0x25, 0xb1, 0x33, 0x89, 0xa1, 0x8e, 0x27, 0x07, 0x08, 0x2e, 0x31, 0x9c, 0xf0, 0xfd, 0xed, 0x33, 0xf4, 0xe5, 0xa3, 0xc6, 0x8b, 0xb3, 0xde, 0xec, 0xb2, 0xbc, 0x29, 0x56, 0xf6, 0xf4, 0xcd, 0x52, 0xef, 0xec, 0x36, 0x21, 0x59, 0x4c, 0xe9, 0x60, 0xf6, 0xd2, 0x26, 0xa2, 0xd1, 0x18, 0x45, 0x1a, 0x9d, 0x9e, 0x2a, 0xe8, 0x2d, 0x7f, 0xaf, 0xc8, 0xdd, 0xdd, 0xf9, 0x6c, 0xc8, 0x40, 0x1e, 0x58, 0xb7, 0x49, 0xbe, 0xd4, 0xf5, 0x35, 0x4f, 0xd4, 0x06, 0xe8, 0x26, 0x07, 0xc2, 0x2f, 0x61, 0x49, 0xd5, 0x02, 0xf3, 0xb8, 0x56, 0x34, 0x19, 0x3d, 0xf6, 0x50, 0xe2, 0x52, 0xb0, 0x8d, 0x25, 0x27, 0x89, 0x05, 0x06, 0x1c, 0x6c, 0x5a, 0x08, 0x51, 0x81, 0x00, 0x16, 0x24, 0xfc, 0x45, 0xfe, 0x3c, 0xa8, 0xbb, 0x1c, 0xfe, 0x26, 0x3e, 0x9c, 0x08, 0x03, 0xc6, 0x0a, 0x68, 0x54, 0x42, 0xde, 0x1a, 0x0d, 0x33, 0xeb, 0xd3, 0x06, 0x81, 0x2f, 0x27, 0x0d, 0x46, 0x38, 0xc9, 0xe8, 0x03, 0x1e, 0xe3, 0x56, 0xcc, 0xa4, 0xcb, 0xed, 0x05, 0xfd, 0xdc, 0xb1, 0x44, 0xdc, 0xbb, 0xe3, 0xf7, 0xca, 0xf0, 0x07, 0xd4, 0x3b, 0x16, 0xea, 0x16, 0xb8, 0xdf, 0xf0, 0xb2, 0xc4, 0x9f, 0xfc, 0xe9, 0xbd, 0xeb, 0x37, 0xf7, 0x91, 0xb8, 0xf1, 0x41, 0x18, 0x57, 0xf4, 0xfc, 0x1e, 0xad, 0xe1, 0x21, 0x10, 0x09, 0xd4, 0xd9, 0x19, 0xbb, 0x9b, 0x98, 0x16, 0x14, 0xc8, 0xb0, 0x20, 0xd1, 0xbc, 0x41, 0x3a, 0x0c, 0xfd, 0x4b, 0x9e, 0xcf, 0xc7, 0xb0, 0x31, 0xb1, 0xb4, 0xfc, 0x4a, 0xcb, 0x23, 0xee, 0xa8, 0xd9, 0xad, 0xfe, 0x07, 0xd0, 0xf6, 0x22, 0x10, 0xf8, 0x04, 0xce, 0xb7, 0x2c, 0xe1, 0xf9, 0x0d, 0x0e, 0xeb, 0xc4, 0xc2, 0x10, 0xfc, 0xf3, 0x1b, 0x09, 0xe3, 0x81, 0x08, 0x31, 0xe9, 0x1e, 0x1f, 0xbf, 0x05, 0xbb, 0xee, 0x46, 0x9b, 0xcc, 0xb1, 0x47, 0x51, 0x61, 0xf5, 0xc8, 0x55, 0xc2, 0xef, 0xb2, 0x4e, 0xed, 0xfa, 0x1b, 0x0d, 0xc9, 0x67, 0x99, 0xe9, 0xcd, 0xa3, 0x3b, 0x57, 0x29, 0x13, 0x66, 0x39, 0xe1, 0xcc, 0x1f, 0x62, 0x54, 0x15, 0x7f, 0x99, 0x42, 0x59, 0xfc, 0x58, 0x6e, 0x97, 0x51, 0x43, 0x2a, 0x27, 0x44, 0x41, 0x50, 0x8c, 0xa9, 0x4d, 0x60, 0xf2, 0x76, 0xff, 0x48, 0xff, 0x31, 0xdb, 0x91, 0x32, 0xfe, 0x50, 0x06, 0xc7, 0x4c, 0x6d, 0xbd, 0x1e, 0x17, 0xcb, 0x07, 0xa5, 0xf8, 0xc6, 0x5b, 0x45, 0x69, 0x24, 0xe0, 0x1c, 0x40, 0x3d, 0xdb, 0x7a, 0xc6, 0x98, 0x1e, 0x5f, 0x20, 0xdd, 0xad, 0x49, 0x9d, 0xb1, 0x31, 0xbe, 0xb0, 0xb7, 0x09, 0xd6, 0xe4, 0x00, 0x30, 0x58, 0xf9, 0xf3, 0xf7, 0x1f, 0x6d, 0x1c, 0x2a, 0xe0, 0xff, 0x94, 0x49, 0xba, 0xcf, 0x81, 0xed, 0x22, 0x2a, 0xd9, 0xfe, 0x7f, 0x04, 0x3c, 0x4d, 0x70, 0x52, 0x41, 0x48, 0x13, 0x58, 0xfb, 0xe4, 0x5d, 0xd5, 0xdd, 0x06, 0xf9, 0x07, 0x0d, 0x29, 0x50, 0xcb, 0x36, 0x37, 0x3e, 0x53, 0xe5, 0xe4, 0xc5, 0x01, 0xc6, 0xda, 0x52, 0x10, 0xe7, 0x50, 0x24, 0x17, 0x13, 0xda, 0xe5, 0x3b, 0x43, 0x38, 0xe4, 0x1c, 0x5c, 0x00, 0x1c, 0x28, 0x3a, 0x43, 0xbb, 0xbc, 0xbb, 0x22, 0xef, 0xdb, 0x2d, 0x1b, 0x2a, 0xdc, 0x6b, 0xb0, 0xc2, 0x38, 0xc3, 0x05, 0x1f, 0x46, 0xd4, 0xfa, 0x01, 0x4a, 0x0b, 0x47, 0x41, 0x15, 0x2e, 0x2c, 0xb4, 0xff, 0x09, 0x33, 0xfa, 0x0b, 0x1f, 0x24, 0xe8, 0x18, 0xa9, 0xf7, 0xe6, 0xca, 0xf5, 0x05, 0xdd, 0x4c, 0x51, 0x63, 0xd6, 0xfc, 0x22, 0x68, 0xc8, 0xc0, 0x18, 0x33, 0xdc, 0xcd, 0x04, 0xc6, 0x15, 0xac, 0x31, 0x4d, 0xe7, 0xf4, 0x35, 0x81, 0x1b, 0x5f, 0xe6, 0x18, 0x3e, 0xc8, 0x01, };
const int32_t bias11[64] = {9148, -992, 1373, 1286, 9285, 7246, -3797, -7678, 1495, 835, -1952, -2464, 3032, 2466, -602, 5015, 1563, 513, -4359, 3429, -5225, 748, -4689, 9095, 6842, -2200, -3478, -2124, 426, 1313, 1399, -7245, -1889, -1445, 3628, 4991, -2089, 860, 5368, 484, -6887, -1734, 3374, 171, -33, 3331, 7593, 2965, 5329, -6642, -4193, -3991, 3847, 8296, -3612, 3761, 5510, -3129, 7229, 10303, -6943, -549, -9055, 609, };
const float scales11[64] = {0.002079352836989481, 0.002253194511102115, 0.0027042514978835195, 0.0021478369550044685, 0.001466480018471383, 0.0024761375789434615, 0.002425846739367756, 0.001650074737312134, 0.0016479157440335932, 0.0026861262758963297, 0.0025749284070443424, 0.0014812266796707075, 0.0027326425524886104, 0.0034484954746706827, 0.0027001027272178946, 0.005490781395869291, 0.0018062482573922662, 0.002005880242718699, 0.0012465826310676376, 0.0024735393028555686, 0.0023872431047764625, 0.003612480477312438, 0.0013218967589129391, 0.0019901711275851003, 0.0026365704871249463, 0.0020649645516088787, 0.001871014149184776, 0.0018483009765269168, 0.0021716643207556484, 0.0027183506975491907, 0.0017259402046628314, 0.0014152704167924293, 0.0015255361589810894, 0.0015055969549740025, 0.001635499348090432, 0.0022990032884446974, 0.0015345218723520784, 0.002720568392087769, 0.0019884528563762277, 0.0018709785788941053, 0.0013111024093460848, 0.0017173841104962146, 0.0014847133905909013, 0.0026701951034568097, 0.002610409052358196, 0.001903364608919609, 0.0017849340457617097, 0.003240440526756877, 0.0021549386766216106, 0.003027659459182052, 0.001770573106327115, 0.001389132729820896, 0.002324297671675272, 0.0013771699064859403, 0.0018561912071886953, 0.0034875794109903387, 0.002144591628600156, 0.0016320754506026075, 0.003719531425976349, 0.0034531547715313097, 0.0019526093118540865, 0.0025624171227246234, 0.0017155495676146584, 0.0017760176224945127, };
const int32_t shift11[64] = {-8, -8, -8, -8, -9, -8, -8, -9, -9, -8, -8, -9, -8, -8, -8, -7, -9, -8, -9, -8, -8, -8, -9, -8, -8, -8, -9, -9, -8, -8, -9, -9, -9, -9, -9, -8, -9, -8, -8, -9, -9, -9, -9, -8, -8, -9, -9, -8, -8, -8, -9, -9, -8, -9, -9, -8, -8, -9, -8, -8, -9, -8, -9, -9, };
const int32_t multiplier11[64] = {1143136311, 1238706782, 1486677983, 1180785853, 1612411832, 1361271030, 1333623349, 1814276360, 1811902522, 1476713537, 1415581862, 1628625958, 1502286131, 1895830436, 1484397172, 1509294498, 1985990962, 1102744325, 1370632098, 1359842613, 1312400776, 1985982145, 1453440857, 1094108148, 1449469954, 1135226268, 2057201813, 2032228415, 1193885086, 1494429100, 1897691324, 1556106280, 1677344745, 1655421359, 1798250550, 1263890424, 1687224642, 1495648291, 1093163518, 2057162703, 1441572344, 1888283799, 1632459637, 1467955282, 1435087553, 2092771519, 1962555738, 1781451019, 1184690066, 1664473390, 1946765718, 1527367589, 1277796158, 1514214326, 2040903816, 1917317058, 1179001716, 1794485935, 2044834026, 1898391912, 2146916643, 1408703711, 1886266698, 1952752027, };
const unsigned char CHWweight12[576] = {0x19, 0xcc, 0x7f, 0x7f, 0x01, 0x0f, 0x71, 0xad, 0x6e, 0xa8, 0x94, 0x50, 0x4f, 0x81, 0xd3, 0x48, 0x41, 0x60, 0x2f, 0xe3, 0x1e, 0x40, 0xb6, 0x66, 0x11, 0x12, 0x7f, 0xba, 0xc9, 0x81, 0x68, 0x9d, 0x70, 0x96, 0x54, 0xbc, 0x7f, 0x9d, 0x94, 0xf4, 0x98, 0x6b, 0x40, 0x98, 0x8e, 0xea, 0x15, 0xd0, 0x67, 0xd8, 0x2e, 0x7f, 0xad, 0x92, 0x81, 0x15, 0x58, 0xac, 0xfc, 0x5b, 0x45, 0x49, 0x46, 0x21, 0x06, 0x6e, 0x0b, 0x19, 0x08, 0x63, 0x81, 0xe2, 0x81, 0x12, 0xe2, 0x96, 0x9d, 0x25, 0x59, 0x6e, 0x58, 0xa4, 0x5b, 0x53, 0x03, 0x91, 0xaf, 0x9a, 0x22, 0x7f, 0x57, 0x8e, 0x9b, 0x0b, 0x81, 0xcb, 0x10, 0xa9, 0x12, 0xf5, 0x51, 0x9c, 0x65, 0x54, 0x81, 0x16, 0xe5, 0x37, 0x36, 0xd0, 0xd1, 0xc0, 0x2f, 0xca, 0xcc, 0x7f, 0x35, 0x5a, 0x72, 0x89, 0xee, 0xef, 0x7f, 0xe6, 0xf9, 0x49, 0x30, 0xa9, 0x92, 0xe3, 0x3b, 0x7f, 0x34, 0x58, 0x3a, 0xf1, 0x00, 0x5b, 0x30, 0x1c, 0x4c, 0x7f, 0x32, 0x11, 0xca, 0xb0, 0xc0, 0x7f, 0x5f, 0xc2, 0x6c, 0xe6, 0xdd, 0x2d, 0x89, 0xae, 0xf7, 0xd8, 0x76, 0xe4, 0x84, 0x81, 0x63, 0x1e, 0x81, 0x9f, 0xa9, 0x74, 0x62, 0x49, 0x2f, 0x1c, 0x5a, 0x81, 0x76, 0x4f, 0x1a, 0x4b, 0xd2, 0xab, 0xed, 0x98, 0xf1, 0x46, 0x22, 0xce, 0x16, 0x81, 0x8d, 0x85, 0x7f, 0x85, 0x3d, 0x7b, 0xd7, 0xea, 0x72, 0x8a, 0x81, 0xe8, 0xe1, 0xd6, 0x01, 0x20, 0x3f, 0x52, 0x5c, 0xcd, 0x25, 0x36, 0x30, 0xe1, 0x7f, 0x90, 0xa0, 0x83, 0x0a, 0x8b, 0x60, 0xa9, 0x23, 0x7f, 0x78, 0x24, 0x42, 0x0d, 0x32, 0xfa, 0xb0, 0x70, 0xb2, 0x7f, 0x26, 0x53, 0x05, 0x48, 0x5c, 0x81, 0x53, 0xd4, 0x84, 0x8f, 0xfb, 0x67, 0x8d, 0x23, 0x31, 0x81, 0x0a, 0xc3, 0xfe, 0xc1, 0x45, 0x8f, 0x32, 0xc6, 0x37, 0x24, 0x81, 0xbb, 0x02, 0x04, 0xaa, 0x45, 0xae, 0x97, 0x43, 0x02, 0x1f, 0x7f, 0xdb, 0x24, 0x4a, 0x20, 0x7f, 0x47, 0x47, 0x4c, 0x58, 0x1f, 0x2c, 0x48, 0x1d, 0x01, 0xcb, 0x16, 0x7f, 0x08, 0xe2, 0x16, 0xfe, 0x1a, 0xf7, 0xf3, 0xe4, 0x7f, 0xb4, 0x99, 0xea, 0x0a, 0x75, 0x5f, 0x17, 0x81, 0xc1, 0x10, 0xda, 0xaa, 0x1b, 0x62, 0x1d, 0x74, 0x7f, 0x11, 0x7d, 0x0c, 0x29, 0x51, 0x9b, 0x30, 0x7f, 0xfa, 0x04, 0x0d, 0x9b, 0x19, 0x27, 0x42, 0x7f, 0x92, 0x7a, 0xca, 0xaa, 0xc3, 0xb0, 0x0f, 0xe1, 0x06, 0x81, 0xd9, 0x35, 0xbf, 0x69, 0xbe, 0xbe, 0x67, 0x7f, 0x44, 0x2f, 0x9b, 0x07, 0xf3, 0xd3, 0x19, 0x2e, 0xa9, 0xe1, 0x1f, 0x5b, 0x81, 0x62, 0xe6, 0x16, 0x8f, 0x8e, 0xc0, 0xeb, 0x20, 0x7f, 0x0e, 0x2e, 0xa6, 0x3e, 0x96, 0x81, 0x54, 0xce, 0xbe, 0xb3, 0xee, 0x39, 0x57, 0x8a, 0x1f, 0x94, 0x81, 0xd1, 0x03, 0x35, 0x34, 0x1f, 0x66, 0x07, 0x03, 0x7f, 0x0c, 0x3c, 0xc8, 0x41, 0x21, 0x7f, 0xad, 0x96, 0x19, 0xf7, 0x7b, 0xf1, 0xf7, 0x29, 0x88, 0x81, 0x51, 0x06, 0x1d, 0xf4, 0x48, 0xe9, 0x21, 0x1f, 0x24, 0xa6, 0x81, 0xd7, 0x81, 0x83, 0xd0, 0xe9, 0xed, 0xac, 0x9f, 0xf0, 0x61, 0x54, 0x68, 0x2e, 0x46, 0x08, 0xad, 0x34, 0x7f, 0xd1, 0xfa, 0x81, 0x4d, 0x88, 0xc5, 0xfc, 0xb7, 0xf8, 0xa2, 0x54, 0xba, 0x15, 0x81, 0x43, 0x63, 0xa5, 0xdd, 0xf3, 0xf8, 0x1e, 0x6c, 0xe1, 0xfe, 0x81, 0xb7, 0x92, 0x09, 0x12, 0x7f, 0x60, 0xf6, 0xd4, 0x0e, 0xd9, 0xee, 0xea, 0xcf, 0x2d, 0x53, 0xee, 0xfa, 0x81, 0xd8, 0x96, 0x54, 0x52, 0x8f, 0x9e, 0x87, 0x31, 0x0c, 0x81, 0xd4, 0x69, 0xff, 0xa9, 0x2c, 0x6e, 0x7f, 0x3c, 0xfc, 0x15, 0x7b, 0x30, 0xab, 0x2c, 0x5e, 0xa2, 0xb2, 0x7f, 0x34, 0xad, 0x33, 0x73, 0x25, 0x7a, 0x44, 0x1f, 0x7f, 0xe3, 0x21, 0xf5, 0x08, 0x30, 0xed, 0x12, 0x52, 0x35, 0x7f, 0x3c, 0xe1, 0x5a, 0xd4, 0x2d, 0x7f, 0xda, 0xee, 0x4d, 0xf4, 0x8a, 0xb4, 0x81, 0xdf, 0x21, 0xea, 0xda, 0x12, 0xe6, 0xeb, 0x99, 0xf5, 0x44, 0xc3, 0x9c, 0x2c, 0x81, 0x89, 0x07, 0x71, 0x42, 0x39, 0xed, 0x96, 0xff, 0x81, 0xfd, 0x5c, 0x14, 0x78, 0xcd, 0x61, 0x5d, 0xaf, 0x81, 0xae, };
const int32_t offsetBias12[64] = {47768, 3048, 36928, -28281, -29167, -299, 24144, 17174, -3079, -6160, -43046, 9932, 1649, 26879, 24993, 52343, 1145, -45225, 18659, 19808, -37199, -598, 4911, -18412, 35248, 32100, -19798, -20565, -19512, 2843, 66096, 34847, 2065, -7044, 50657, 27082, 4125, -40799, 28117, -13217, -6840, -27791, -39345, 48093, 7077, 2128, -14757, -55360, 45199, -51512, -8314, -24534, 15583, -16255, -31776, 47985, 3799, 69055, 44795, 24175, -48771, -52573, -763, 10562, };
const int32_t offsetRBias12[64] = {0, 0, 0, 0, 0, 0, 0, 0, 0, 0, 0, 0, 0, 0, 0, 0, 0, 0, 0, 0, 0, 0, 0, 0, 0, 0, 0, 0, 0, 0, 0, 0, 0, 0, 0, 0, 0, 0, 0, 0, 0, 0, 0, 0, 0, 0, 0, 0, 0, 0, 0, 0, 0, 0, 0, 0, 0, 0, 0, 0, 0, 0, 0, 0, };
const float scales12[64] = {0.01716252651843595, 0.0073886424818136055, 0.009105201084451928, 0.018874579300279196, 0.015228017107795448, 0.010010341310138162, 0.009751039279395735, 0.009800660876050117, 0.019327298507537078, 0.008491931448631432, 0.007955306044457563, 0.009390793538136639, 0.010234772712246844, 0.0088137858632109, 0.00728911532994483, 0.009566567120935853, 0.008420734176059647, 0.007075377975382088, 0.008033053121992161, 0.008173403036137563, 0.008187163706765541, 0.006274701511427971, 0.009024785831381915, 0.02194503679312143, 0.009134725012727917, 0.008781982504489624, 0.00743426860688441, 0.009337874399935702, 0.010012999136386652, 0.007974854553798483, 0.006951722107877539, 0.010868708580396187, 0.01152280291898461, 0.009838530210570452, 0.013678779307860146, 0.00942604062208229, 0.007959476807088436, 0.010112532109729322, 0.008027128155227459, 0.02695769321678963, 0.007881456767111184, 0.007664389529480246, 0.007985352611723277, 0.009204878947811551, 0.01406785298784951, 0.016156048015669024, 0.018755838050403272, 0.008470468968039773, 0.008312899780942065, 0.008646948889671635, 0.008588452779478856, 0.008573388098698297, 0.011838925769098792, 0.02213547402183285, 0.0077286191446296094, 0.0074509367803079485, 0.008500519416288085, 0.008244919842943165, 0.00853587516774645, 0.010143978418051676, 0.010451112912471285, 0.012710600928681816, 0.00817054792660706, 0.006960820424745695, };
const int32_t shift12[64] = {-5, -7, -6, -5, -6, -6, -6, -6, -5, -6, -6, -6, -6, -6, -7, -6, -6, -7, -6, -6, -6, -7, -6, -5, -6, -6, -7, -6, -6, -6, -7, -6, -6, -6, -6, -6, -6, -6, -6, -5, -6, -7, -6, -6, -6, -5, -5, -6, -6, -6, -6, -6, -6, -5, -7, -7, -6, -6, -6, -6, -6, -6, -6, -7, };
const int32_t multiplier12[64] = {1179399842, 2030974581, 1251409308, 1297051213, 2092922735, 1375810834, 1340172634, 1346992574, 1328161840, 1167122171, 1093368937, 1290660836, 1406656451, 1211357505, 2003616765, 1314818973, 1157336893, 1944865089, 1104054414, 1123343960, 1125235212, 1724776818, 1240357120, 1508051445, 1255467046, 1206986485, 2043516194, 1283387685, 1376176122, 1096055664, 1910874823, 1493783933, 1583681974, 1352197296, 1879997113, 1295505158, 1093942163, 1389855830, 1103240093, 1852518572, 1083219170, 2106771352, 1097498506, 1265108929, 1933470992, 1110235166, 1288891377, 1164172390, 1142516246, 1188427606, 1180387962, 1178317488, 1627129568, 1521138192, 2124426654, 2048097907, 1168302493, 1133173155, 1173161750, 1394177778, 1436390021, 1746931690, 1122951556, 1913375749, };
const unsigned char weight13[4096] = {0x32, 0x42, 0xa0, 0xd1, 0x02, 0xf2, 0xc4, 0xe9, 0x35, 0x9a, 0xda, 0x4f, 0x16, 0xed, 0x59, 0xfc, 0x13, 0xfa, 0xd6, 0x6a, 0xbc, 0x14, 0xbd, 0xcf, 0x46, 0x9d, 0x12, 0xe9, 0x4b, 0xbf, 0xde, 0xdd, 0x33, 0x7f, 0x23, 0x1e, 0x6c, 0xad, 0x22, 0x4d, 0xdf, 0xcb, 0x60, 0x43, 0x3e, 0x48, 0xf8, 0x9e, 0xb2, 0x20, 0xf9, 0x7b, 0x32, 0x3c, 0xfd, 0xcd, 0xec, 0xbb, 0xa7, 0xe9, 0xa8, 0xa9, 0x58, 0xff, 0x0c, 0xf3, 0x81, 0xf5, 0xb4, 0x11, 0x4e, 0xf9, 0x0a, 0x3f, 0x26, 0x1a, 0x01, 0xf7, 0xcb, 0x33, 0x23, 0x13, 0x2e, 0x1b, 0x07, 0x01, 0xe0, 0x20, 0x1e, 0x30, 0xb6, 0x14, 0xde, 0xce, 0x85, 0xd5, 0x3f, 0x04, 0xee, 0xc8, 0xff, 0x1c, 0x1b, 0xe5, 0xf3, 0x42, 0xf1, 0xcf, 0xde, 0xf0, 0x3d, 0xcb, 0xfd, 0x14, 0xb1, 0xd9, 0x2b, 0xd3, 0x40, 0xd4, 0x34, 0xd4, 0xea, 0x3f, 0xaf, 0xc7, 0xf6, 0x0a, 0xb8, 0x40, 0x0c, 0x25, 0xb1, 0x0c, 0x26, 0x1f, 0xcb, 0x0a, 0x21, 0xa3, 0xb3, 0xe0, 0x9c, 0x14, 0xb5, 0x57, 0x38, 0x34, 0xb0, 0xf7, 0x3c, 0xee, 0x16, 0x32, 0x07, 0xe2, 0x1b, 0x0a, 0x8c, 0xbd, 0x8c, 0x8f, 0x28, 0x51, 0x81, 0xa2, 0x92, 0x12, 0x4c, 0xec, 0xf7, 0x89, 0x09, 0x0c, 0x3b, 0xdd, 0xc2, 0x22, 0x28, 0x4c, 0xfb, 0x24, 0x50, 0xe8, 0xd6, 0x40, 0xef, 0x32, 0x2d, 0x2a, 0xab, 0x23, 0xfc, 0xff, 0xf5, 0x07, 0x01, 0xf1, 0xd4, 0xce, 0xda, 0xe8, 0xe9, 0x43, 0x23, 0xd6, 0x04, 0xf1, 0x6c, 0xd6, 0x3f, 0x22, 0x68, 0x11, 0x4f, 0xfa, 0x15, 0xa5, 0xa8, 0xd7, 0xac, 0xde, 0xa5, 0x26, 0xb9, 0x24, 0x04, 0xb1, 0x2f, 0xf6, 0x08, 0x48, 0x8c, 0x26, 0xe9, 0xff, 0x2e, 0xff, 0xf6, 0x50, 0x3e, 0x20, 0x54, 0x8d, 0xc5, 0x68, 0xd0, 0x23, 0x50, 0x81, 0x24, 0x50, 0xe4, 0xaf, 0x94, 0xf3, 0xeb, 0xc2, 0x4d, 0xb2, 0xde, 0x45, 0x41, 0x2c, 0x4f, 0x10, 0x2b, 0xd9, 0xd7, 0xfc, 0xb1, 0x23, 0x0f, 0xf8, 0xd6, 0x20, 0x92, 0xfb, 0x06, 0x6f, 0x6e, 0x2d, 0xf2, 0x37, 0x0b, 0xff, 0x25, 0xbc, 0xfa, 0xb3, 0xcd, 0xbc, 0x2e, 0xf9, 0x46, 0xd1, 0xe1, 0xc6, 0xa2, 0x5b, 0xaa, 0x69, 0xe4, 0xbd, 0xbd, 0x95, 0xdc, 0x4e, 0x33, 0xc5, 0x4b, 0x72, 0x2e, 0x7f, 0x71, 0x53, 0x5d, 0xb0, 0xfd, 0xcf, 0xd3, 0x81, 0x36, 0xd4, 0x21, 0x3b, 0x27, 0x0e, 0x6d, 0x94, 0x59, 0x91, 0x67, 0x21, 0xd2, 0xd2, 0x9a, 0x56, 0x67, 0x4c, 0x51, 0x6b, 0x8a, 0x36, 0x27, 0x41, 0x33, 0x03, 0x69, 0xc6, 0x9a, 0x9f, 0x5a, 0x0d, 0xbb, 0x59, 0xf2, 0xb4, 0x7b, 0x46, 0x74, 0xee, 0xb1, 0x9c, 0x15, 0xb4, 0x45, 0x84, 0xaa, 0x18, 0x3a, 0x01, 0x12, 0xed, 0xe1, 0xf6, 0x9a, 0xfd, 0xe4, 0x0b, 0x59, 0xa5, 0x37, 0x5c, 0x43, 0xc2, 0x04, 0xc4, 0xe9, 0xf6, 0xfa, 0x92, 0x4a, 0x27, 0x9c, 0x2d, 0xbc, 0xe9, 0x17, 0x54, 0x6a, 0x27, 0xe5, 0xbf, 0x08, 0x70, 0xf0, 0xf3, 0xda, 0x17, 0x5a, 0x05, 0x22, 0x3a, 0x4a, 0x19, 0x3b, 0x4c, 0x25, 0x81, 0xf9, 0xc7, 0x5a, 0x04, 0x84, 0x47, 0xd3, 0x87, 0xf7, 0x42, 0xd0, 0x81, 0x23, 0x11, 0x51, 0x9b, 0xec, 0xbe, 0xda, 0xf7, 0x7b, 0x03, 0x33, 0x3a, 0xde, 0xfb, 0x56, 0x55, 0xed, 0xef, 0xe4, 0xcc, 0xe4, 0x3a, 0xf2, 0x10, 0xbc, 0x2e, 0xc0, 0xc8, 0x3c, 0xe2, 0xa5, 0x94, 0xd3, 0xef, 0xbf, 0x26, 0xef, 0xd0, 0x54, 0xad, 0xec, 0x44, 0x0b, 0x28, 0xdf, 0x95, 0x5e, 0x81, 0xcd, 0x29, 0xd8, 0xe0, 0xb2, 0x21, 0xb3, 0x26, 0x5d, 0xc0, 0x39, 0xd3, 0x95, 0x18, 0xbe, 0x34, 0xda, 0xc9, 0xbc, 0x09, 0x89, 0x17, 0x3e, 0xa6, 0x1a, 0x9c, 0xe7, 0xaa, 0x44, 0xae, 0xd8, 0xc7, 0x15, 0xf0, 0xb7, 0xfe, 0x14, 0xe5, 0x22, 0x3d, 0x1e, 0x0d, 0xda, 0xdd, 0x1f, 0x29, 0x11, 0x33, 0xcc, 0x97, 0xcc, 0xd8, 0x48, 0x30, 0xe0, 0xfd, 0xd4, 0xcf, 0xc3, 0x20, 0xf0, 0xcb, 0xf2, 0xd7, 0xfe, 0x0f, 0x21, 0x07, 0xbf, 0xc6, 0x7f, 0x0f, 0xe2, 0x48, 0x2b, 0x11, 0xd2, 0x5d, 0xb8, 0x87, 0x1d, 0xcc, 0xbb, 0x36, 0x32, 0xd3, 0x11, 0x27, 0x0d, 0x5d, 0x3d, 0x2c, 0xbc, 0xbd, 0x08, 0x07, 0xb3, 0x84, 0xe2, 0xec, 0xce, 0xaa, 0xe9, 0xbd, 0xe1, 0x2d, 0x40, 0x28, 0x4b, 0x0c, 0xd4, 0x07, 0xf3, 0xe1, 0x61, 0x2a, 0xa6, 0x13, 0x0e, 0xf4, 0xe3, 0x38, 0xdd, 0x2d, 0xcd, 0x16, 0xe3, 0xd7, 0x9b, 0x1d, 0x0b, 0x25, 0xb1, 0x03, 0xd8, 0x1b, 0x37, 0x97, 0x0f, 0xc1, 0x05, 0xf2, 0x0f, 0xa4, 0x17, 0x24, 0xc3, 0xb0, 0x5f, 0xaf, 0x2e, 0xd0, 0x81, 0x07, 0xe7, 0xdc, 0x11, 0x46, 0x43, 0x5f, 0x0d, 0xe8, 0xec, 0x2c, 0xdd, 0x3f, 0x1d, 0x22, 0x28, 0xbf, 0x0b, 0x22, 0x04, 0xdb, 0x47, 0xfd, 0xf7, 0xb8, 0x09, 0xd9, 0x2e, 0x36, 0xeb, 0xb1, 0xeb, 0xf0, 0xe4, 0xd6, 0xf7, 0x02, 0x25, 0x43, 0xcd, 0x68, 0xf6, 0x46, 0xcb, 0xcc, 0x23, 0x69, 0x2c, 0xe3, 0xcb, 0x02, 0x36, 0x09, 0xcd, 0x14, 0x20, 0x44, 0xd4, 0xef, 0x2d, 0xfb, 0x34, 0x6d, 0xd9, 0x79, 0x26, 0x7f, 0x20, 0xf0, 0x45, 0xfd, 0xb2, 0xbd, 0x37, 0x1f, 0xfd, 0x01, 0x08, 0xa8, 0xfa, 0xda, 0xf3, 0xb7, 0xdc, 0xfa, 0xd3, 0xcb, 0xe8, 0xfe, 0xb2, 0x38, 0xc2, 0x34, 0xa3, 0xf6, 0xec, 0xa3, 0xfd, 0xb7, 0x17, 0x2c, 0xd1, 0xfe, 0xcf, 0x02, 0x9b, 0x64, 0xf5, 0x0d, 0x24, 0xad, 0xb5, 0x08, 0x9d, 0x1b, 0xd6, 0x9c, 0xd0, 0xc4, 0xf1, 0x4b, 0x47, 0xa2, 0x09, 0xb5, 0x34, 0x0e, 0x81, 0x82, 0xa6, 0xe7, 0x30, 0xb7, 0xec, 0xd9, 0x4f, 0xa2, 0xd1, 0xe2, 0xbf, 0x34, 0xc2, 0xed, 0xd5, 0xfc, 0xd3, 0x64, 0xcb, 0xe0, 0xf4, 0xc3, 0xcd, 0x1b, 0x63, 0x15, 0xde, 0x56, 0x4e, 0xc7, 0xf4, 0x44, 0x2e, 0xa5, 0xf1, 0xc7, 0xf4, 0xde, 0x64, 0xe4, 0x2f, 0xc9, 0x28, 0x45, 0x14, 0xdb, 0xbe, 0xaa, 0x07, 0xcd, 0xc4, 0x5a, 0x3e, 0xe0, 0x0c, 0xe7, 0x40, 0xac, 0xc8, 0x4e, 0x02, 0xef, 0x1e, 0x3b, 0xd5, 0x7f, 0x45, 0xe5, 0xb1, 0x34, 0x0a, 0x9c, 0xad, 0xf9, 0xab, 0xba, 0x2d, 0x0f, 0x5d, 0x0b, 0x65, 0x11, 0xfd, 0x29, 0xcc, 0x49, 0xf1, 0x60, 0x9b, 0xbb, 0x50, 0xbf, 0xf3, 0x4d, 0xed, 0xa3, 0xc1, 0xcb, 0xb4, 0x38, 0x1a, 0xfb, 0x1c, 0x20, 0xfe, 0x56, 0xec, 0x3f, 0xe4, 0xe8, 0x46, 0x74, 0x7f, 0xd1, 0xe9, 0x3d, 0xe2, 0x09, 0xc7, 0xf5, 0xbe, 0x57, 0xd5, 0xc4, 0x12, 0xde, 0xfd, 0xae, 0xb4, 0xfd, 0x33, 0xa6, 0xc2, 0x15, 0xaa, 0xd0, 0xeb, 0xc1, 0xd2, 0x4d, 0x8f, 0x36, 0xb4, 0xca, 0xf4, 0x30, 0x91, 0xb5, 0x9c, 0xf8, 0x06, 0x7f, 0x37, 0xde, 0xdb, 0x1f, 0x3b, 0x5b, 0x32, 0xed, 0x89, 0xb9, 0x29, 0x91, 0x97, 0x97, 0xc0, 0x2c, 0x51, 0x43, 0x2a, 0x1e, 0xcd, 0xbe, 0xb4, 0x0c, 0x7a, 0xb2, 0x1e, 0x0b, 0xbd, 0xb7, 0xfa, 0xaf, 0xf2, 0xcc, 0xd4, 0xc2, 0xb9, 0xfd, 0xf6, 0x41, 0xf4, 0xb7, 0x63, 0x06, 0x2d, 0xab, 0xc2, 0x97, 0xb5, 0x2c, 0x52, 0x14, 0x3d, 0xb6, 0xe2, 0x25, 0x94, 0xa0, 0xf7, 0x34, 0xde, 0xfc, 0x2a, 0x96, 0xbb, 0xf0, 0x38, 0x0d, 0xaf, 0x43, 0xdc, 0x49, 0x3b, 0x11, 0x58, 0x46, 0xbd, 0x51, 0x6d, 0xcd, 0x44, 0x2e, 0xe4, 0x04, 0xf8, 0x5c, 0x33, 0x30, 0x81, 0xd4, 0x99, 0x2a, 0xe6, 0x41, 0x48, 0xe9, 0x03, 0xb4, 0xcb, 0x03, 0x42, 0x1a, 0x25, 0x1d, 0x55, 0x1e, 0x7e, 0xb2, 0x14, 0x07, 0x3d, 0x81, 0x14, 0xab, 0xd1, 0xdb, 0xcb, 0xb9, 0xc8, 0x8d, 0xf2, 0x4a, 0xbc, 0xab, 0xcc, 0x93, 0xdd, 0x6d, 0x86, 0x40, 0x5e, 0x27, 0xbc, 0x03, 0x32, 0x84, 0x50, 0x02, 0x9f, 0xe4, 0xef, 0xb9, 0xc1, 0x00, 0x38, 0x11, 0x84, 0xfa, 0x1a, 0x50, 0x3e, 0x5c, 0x38, 0xdc, 0xcf, 0xd0, 0x0e, 0xf0, 0x4f, 0xc5, 0x40, 0x56, 0x4a, 0x28, 0xc9, 0x21, 0x95, 0xb9, 0xdd, 0x33, 0xe7, 0xb9, 0xa5, 0xf3, 0x15, 0xfd, 0xea, 0x14, 0x3a, 0xf7, 0xfc, 0xbb, 0xc1, 0x06, 0xdc, 0x10, 0xe2, 0x29, 0x4c, 0x68, 0x0d, 0xb8, 0xb4, 0xe1, 0xee, 0xf5, 0x33, 0xd0, 0x0d, 0x17, 0xb2, 0xd7, 0x2d, 0xdb, 0xe5, 0x15, 0xbf, 0x7a, 0x2c, 0x05, 0x1e, 0xca, 0x3c, 0xe7, 0xd6, 0x19, 0xf9, 0x4a, 0x2f, 0x7f, 0x1d, 0xc8, 0xc6, 0x1e, 0x1e, 0x4e, 0xb8, 0x48, 0xd6, 0x24, 0x2e, 0xc0, 0xbb, 0x6e, 0xbd, 0x1e, 0x16, 0x47, 0x25, 0xeb, 0xd6, 0xeb, 0x94, 0x04, 0xd7, 0x5d, 0xc6, 0xf8, 0xa4, 0x69, 0x60, 0x7f, 0x37, 0xbf, 0x61, 0xe2, 0x55, 0x14, 0x43, 0xde, 0x11, 0x16, 0xbd, 0x4c, 0xd6, 0xab, 0x61, 0xa1, 0x1f, 0x44, 0xca, 0x90, 0x9b, 0x0b, 0x00, 0x32, 0x6b, 0xd4, 0xd2, 0x8e, 0xf5, 0x42, 0xe0, 0x20, 0xfb, 0xa7, 0x5b, 0x18, 0x56, 0xac, 0xce, 0x13, 0x2a, 0xd2, 0xb4, 0x50, 0x47, 0x78, 0x48, 0x36, 0xcb, 0x1b, 0x04, 0xe5, 0xe3, 0x0b, 0xd6, 0xcd, 0xd3, 0xcd, 0xb7, 0xba, 0xbf, 0xcb, 0xdd, 0xc3, 0x95, 0x79, 0xa1, 0x2c, 0x0d, 0xff, 0x6d, 0xbd, 0x2a, 0x46, 0x0d, 0x81, 0xe5, 0x00, 0xb6, 0x36, 0x01, 0x4b, 0xc4, 0xef, 0x38, 0xe1, 0x37, 0x24, 0x5d, 0xab, 0x22, 0x53, 0xd4, 0x9f, 0x59, 0xb0, 0xd7, 0x8b, 0x1a, 0xf4, 0xa6, 0x50, 0x42, 0x10, 0x95, 0x95, 0xc8, 0xbc, 0xa1, 0x3c, 0xde, 0xc9, 0x55, 0x35, 0x22, 0xa6, 0xab, 0xb1, 0xdd, 0x59, 0xc7, 0x20, 0x1c, 0x3c, 0x3f, 0x51, 0x67, 0xd2, 0xe1, 0xde, 0x5b, 0xcd, 0x22, 0xde, 0x2f, 0x1b, 0x69, 0x78, 0x4d, 0xe8, 0x37, 0xa3, 0x3c, 0x30, 0x1f, 0xe6, 0x2d, 0x4c, 0xea, 0xc4, 0xea, 0x8b, 0xf8, 0xa9, 0xfc, 0xd1, 0x4c, 0xf1, 0xef, 0x04, 0xde, 0xed, 0xd9, 0xd0, 0x1c, 0x24, 0xe0, 0x7f, 0x16, 0x10, 0xb0, 0x07, 0x4c, 0x68, 0xd1, 0x05, 0x8f, 0x8b, 0x70, 0x43, 0xf3, 0x34, 0xd4, 0x57, 0xdf, 0xc2, 0xfc, 0xc2, 0x66, 0x99, 0x69, 0xe3, 0xfc, 0x36, 0xf9, 0xcf, 0x02, 0xe5, 0x40, 0x39, 0xda, 0x23, 0xc0, 0x14, 0xf8, 0xad, 0xfa, 0x2a, 0x9a, 0x58, 0xa2, 0x12, 0x31, 0xa1, 0x6d, 0xea, 0xd8, 0xd2, 0x81, 0x6e, 0xc2, 0x40, 0x39, 0x32, 0x27, 0x0c, 0xac, 0xf2, 0xb8, 0x35, 0x27, 0x08, 0x82, 0x89, 0xc5, 0x42, 0x4d, 0x8a, 0x96, 0x50, 0x20, 0x9a, 0xec, 0x2a, 0x3f, 0xde, 0xc4, 0xea, 0xd4, 0xba, 0xce, 0x46, 0x19, 0x20, 0x9c, 0xf8, 0x66, 0x24, 0xd3, 0xed, 0x2f, 0xd7, 0xf6, 0xfb, 0xb9, 0xfa, 0xd1, 0x9f, 0xf6, 0x39, 0x9a, 0x1e, 0xe8, 0x97, 0x38, 0x7b, 0x0e, 0x0a, 0x0c, 0x22, 0x0e, 0xc9, 0xd8, 0xb0, 0x7f, 0xf5, 0x13, 0x22, 0xcd, 0xd3, 0xab, 0x1a, 0x25, 0xd8, 0x4a, 0x40, 0x8b, 0xa3, 0x0a, 0xdd, 0x17, 0x41, 0xab, 0x1d, 0x22, 0x72, 0xc0, 0x0b, 0xbf, 0x9d, 0x3f, 0x28, 0x98, 0x12, 0xc2, 0x3a, 0x1b, 0xe8, 0xce, 0xed, 0xde, 0xcd, 0x08, 0xa6, 0xf3, 0xdd, 0xcb, 0xf8, 0xf3, 0xb4, 0xf2, 0x07, 0xbf, 0x00, 0xd1, 0xb3, 0xea, 0x25, 0xe3, 0xb0, 0x5a, 0xf4, 0xbe, 0x26, 0xa0, 0x2d, 0x46, 0x23, 0xb5, 0xe1, 0x03, 0xee, 0x2a, 0x8f, 0xc2, 0x9c, 0xcd, 0x70, 0x70, 0xeb, 0xeb, 0xf3, 0x1c, 0xbe, 0x81, 0xbc, 0xc8, 0x25, 0x22, 0x1b, 0x46, 0xb1, 0xaf, 0xd5, 0xee, 0xd9, 0x09, 0xd7, 0x21, 0xa9, 0xdc, 0x59, 0x2d, 0x22, 0xe5, 0xb6, 0x4c, 0xfc, 0xe6, 0xf2, 0x02, 0x2f, 0xc8, 0xf3, 0x14, 0xdf, 0x35, 0x28, 0xc2, 0x06, 0xcf, 0xb9, 0xee, 0x47, 0x54, 0x1a, 0x75, 0xfd, 0x04, 0x48, 0xc2, 0x54, 0x4e, 0x5c, 0x3b, 0xd6, 0xcc, 0xd4, 0xcf, 0x3b, 0xe7, 0xf5, 0xdb, 0x0a, 0xc4, 0xe6, 0x7f, 0xd4, 0x11, 0x27, 0x56, 0xb6, 0xef, 0xb6, 0xb8, 0xca, 0x09, 0x46, 0xf3, 0xff, 0xe0, 0x93, 0x64, 0x17, 0xb5, 0xf7, 0x25, 0x1b, 0x35, 0x46, 0x30, 0xf7, 0xfd, 0x1b, 0xb9, 0x13, 0x98, 0x53, 0x0e, 0x41, 0x44, 0x58, 0x99, 0xa5, 0x81, 0x3d, 0xba, 0x33, 0x2c, 0x50, 0xbc, 0x15, 0x89, 0x99, 0xae, 0x52, 0x06, 0xe4, 0x55, 0x21, 0x24, 0xca, 0x30, 0x60, 0x91, 0x01, 0xc5, 0xcc, 0x05, 0x83, 0xba, 0x0d, 0x36, 0xb3, 0x2e, 0xbd, 0xe9, 0x2a, 0xdf, 0x32, 0xd6, 0x14, 0x15, 0x08, 0x21, 0x0b, 0x1c, 0x06, 0xd4, 0x42, 0xe4, 0xc1, 0xdb, 0x43, 0x17, 0xcc, 0x2e, 0x1b, 0x28, 0x27, 0xfb, 0x02, 0xda, 0xe1, 0x09, 0xcf, 0x1d, 0x3f, 0x18, 0x3d, 0xec, 0x0a, 0xd9, 0x69, 0xa5, 0x14, 0x33, 0x4f, 0xe5, 0xc4, 0x44, 0xe1, 0x1c, 0xe8, 0x45, 0x3a, 0xee, 0xfa, 0x03, 0x9b, 0x7f, 0x46, 0xeb, 0x5e, 0x27, 0x4a, 0x67, 0x10, 0xa8, 0x22, 0xf0, 0x1d, 0xdb, 0x14, 0x59, 0x21, 0xdf, 0x1d, 0x5f, 0xe1, 0xe0, 0x45, 0x32, 0x40, 0x57, 0x43, 0x7f, 0xc6, 0x7f, 0x47, 0x52, 0x41, 0x17, 0x70, 0x3c, 0x7b, 0xf7, 0x51, 0x4a, 0xe3, 0x3b, 0x3e, 0x6e, 0xe1, 0xd6, 0x36, 0x14, 0xa3, 0x2b, 0x09, 0x06, 0x5f, 0x52, 0xbc, 0x0e, 0x5d, 0xf2, 0x5c, 0x75, 0x00, 0x9a, 0x99, 0x54, 0xaa, 0x3e, 0x1e, 0xb7, 0x79, 0x5d, 0xd2, 0xe2, 0xdb, 0xde, 0x16, 0xea, 0xb8, 0xfb, 0x18, 0x54, 0x19, 0xb8, 0xd7, 0xf0, 0x37, 0x01, 0xb8, 0x39, 0xbc, 0x84, 0x0f, 0x2d, 0x02, 0x04, 0xe8, 0x25, 0x9e, 0xbb, 0xea, 0x2c, 0x36, 0x0d, 0xa8, 0x46, 0x45, 0xd0, 0xea, 0x70, 0xd4, 0x81, 0x75, 0x29, 0x48, 0xec, 0xfe, 0xd6, 0x42, 0xfb, 0xbd, 0x1d, 0xe5, 0xb2, 0x1b, 0x3e, 0xaf, 0x1a, 0xff, 0x3c, 0x48, 0x22, 0x01, 0xd1, 0x25, 0xdd, 0xed, 0xa1, 0xa5, 0xba, 0x3c, 0xe5, 0x70, 0x08, 0x83, 0xa2, 0xfd, 0xec, 0xbf, 0x43, 0x30, 0xed, 0xac, 0x97, 0x0f, 0xb2, 0x25, 0x09, 0x14, 0x0c, 0x3f, 0xaa, 0xc2, 0xe8, 0x36, 0x9d, 0x2e, 0x3d, 0x5f, 0x2e, 0xc7, 0x16, 0x02, 0x54, 0x03, 0x29, 0x0a, 0x02, 0xd7, 0x19, 0xaa, 0x19, 0x28, 0x1c, 0x1c, 0x81, 0xf7, 0xc4, 0x7c, 0xfb, 0x9a, 0x49, 0x35, 0x0a, 0x23, 0xf5, 0x14, 0x4b, 0x14, 0xcf, 0x14, 0x1e, 0x6d, 0x76, 0xc3, 0x1d, 0xe8, 0x3a, 0x14, 0xf6, 0x16, 0x90, 0xf8, 0x81, 0xd9, 0x43, 0x00, 0xf4, 0x24, 0x48, 0x10, 0xdb, 0xb8, 0xf2, 0x61, 0x23, 0x52, 0x38, 0xd2, 0xd4, 0x34, 0xe1, 0x1e, 0xa1, 0x11, 0x0e, 0xa4, 0xf8, 0x21, 0xeb, 0x84, 0x3b, 0x90, 0x13, 0x03, 0xbb, 0xb6, 0x6a, 0x3e, 0xad, 0xe7, 0xb4, 0xbc, 0xfb, 0x69, 0xcb, 0x6e, 0x8b, 0xec, 0xf1, 0xca, 0x07, 0xfb, 0x16, 0xca, 0xd5, 0x0e, 0xe1, 0x30, 0x44, 0xb2, 0x17, 0xda, 0x00, 0xe3, 0xe8, 0x28, 0x1f, 0x28, 0xed, 0xa6, 0x14, 0x6e, 0x30, 0xcb, 0x40, 0xd0, 0x38, 0xeb, 0xd8, 0x33, 0x52, 0x2c, 0xd9, 0xff, 0x03, 0xce, 0x0f, 0x5b, 0xf2, 0x36, 0xa4, 0xe6, 0x1a, 0xdd, 0xd1, 0xef, 0xd6, 0x24, 0x30, 0xc0, 0x41, 0x4d, 0x42, 0xb8, 0xda, 0x10, 0x20, 0x0b, 0xda, 0x39, 0x56, 0x00, 0x3e, 0xff, 0xb9, 0x81, 0x47, 0x45, 0xe1, 0xb3, 0xf2, 0xc5, 0x46, 0x6b, 0x7f, 0x31, 0x3c, 0x33, 0xf2, 0xea, 0xd0, 0x1a, 0x22, 0x32, 0x47, 0x22, 0xe3, 0xf0, 0xb2, 0x1a, 0x0f, 0xa2, 0x43, 0xce, 0xda, 0x15, 0x24, 0x20, 0xe1, 0x17, 0xf3, 0xb0, 0xf5, 0x4d, 0x40, 0xc7, 0x37, 0x23, 0xbf, 0xef, 0xbe, 0x04, 0xbd, 0x52, 0x10, 0xcf, 0x9c, 0xf7, 0xd1, 0x1b, 0xdb, 0xc4, 0x02, 0xb6, 0x2b, 0xa7, 0xdd, 0xcc, 0xeb, 0x2c, 0xd4, 0xa2, 0x07, 0xcc, 0x09, 0x1d, 0xde, 0x9d, 0xd9, 0x0b, 0x24, 0xb8, 0x2e, 0x13, 0x04, 0x07, 0xf4, 0x30, 0x3d, 0xd1, 0x49, 0x26, 0x0f, 0x04, 0x17, 0xfb, 0x0f, 0xd8, 0x14, 0x10, 0x81, 0xef, 0xe1, 0x08, 0xd2, 0x26, 0xc1, 0x2c, 0x12, 0x2f, 0xf9, 0xbf, 0x3a, 0x1a, 0x8c, 0x02, 0xed, 0x18, 0xfb, 0x45, 0xde, 0xf4, 0xfd, 0x29, 0xc2, 0x2b, 0xcd, 0x2f, 0xab, 0xd9, 0xf7, 0x18, 0xa0, 0xc3, 0xb5, 0x3d, 0x2c, 0xf0, 0x27, 0xee, 0xef, 0x9f, 0xce, 0x3c, 0x7f, 0xb1, 0x14, 0x0d, 0xd5, 0xd1, 0xb5, 0x24, 0x4f, 0x12, 0xfd, 0xfc, 0xbb, 0xf6, 0x12, 0x3b, 0x04, 0xdb, 0xf3, 0xb0, 0x1f, 0xcc, 0xea, 0xcc, 0x1a, 0xd7, 0x07, 0xbe, 0x2a, 0xb9, 0xaa, 0xb6, 0x39, 0x21, 0xa8, 0xee, 0x2d, 0x3e, 0x5b, 0xe8, 0xf9, 0x29, 0x0a, 0xc0, 0xee, 0x28, 0x0e, 0xf1, 0xbd, 0x3e, 0xd3, 0xdd, 0x57, 0x3a, 0x02, 0x17, 0xfa, 0xf2, 0xd6, 0x2d, 0x25, 0x0e, 0xf6, 0x38, 0xe3, 0xc9, 0x24, 0x42, 0xf9, 0xb2, 0x3f, 0xe0, 0x23, 0x1c, 0x38, 0x18, 0x82, 0x0d, 0x17, 0x88, 0x4c, 0xfc, 0xd9, 0xfb, 0x44, 0xd4, 0xc6, 0xf9, 0xd2, 0x1b, 0xe0, 0x19, 0x9f, 0x04, 0x58, 0xdc, 0x56, 0xe9, 0x81, 0xbe, 0x38, 0xec, 0x7f, 0xac, 0xa6, 0x52, 0x38, 0x8e, 0x28, 0xb5, 0xd6, 0x51, 0x93, 0xc8, 0x86, 0x9f, 0x96, 0x12, 0x45, 0xcd, 0x3f, 0xc3, 0xe4, 0xbb, 0x45, 0xca, 0x18, 0xa1, 0x9b, 0x59, 0x29, 0xed, 0xf9, 0x1c, 0xdd, 0x2a, 0x0a, 0xee, 0x12, 0xcb, 0x5c, 0xe3, 0xa0, 0xfb, 0xc6, 0x73, 0x1e, 0xdc, 0xaa, 0xbb, 0x88, 0xdc, 0xe0, 0x8c, 0x2b, 0xec, 0xea, 0x8c, 0x25, 0x14, 0x26, 0x03, 0x42, 0x2e, 0x24, 0x17, 0xe7, 0x9d, 0xfd, 0xc9, 0x2b, 0x7f, 0x0a, 0xbb, 0xd5, 0x39, 0xfc, 0x45, 0xc5, 0xf6, 0x3a, 0x36, 0xf9, 0x0c, 0x08, 0xec, 0x72, 0xd9, 0xd4, 0x78, 0x7f, 0xd5, 0xb1, 0xaa, 0x3c, 0xd8, 0xe9, 0xbc, 0xd9, 0x2d, 0xab, 0x3a, 0xb5, 0x65, 0xab, 0x68, 0xd5, 0x23, 0xee, 0xf9, 0xf1, 0x11, 0x36, 0x5a, 0xf6, 0x18, 0x57, 0xc5, 0xd6, 0x32, 0x14, 0x22, 0x1d, 0xfe, 0xf1, 0x53, 0x40, 0x9b, 0x9b, 0xf8, 0xba, 0x47, 0x34, 0x26, 0x48, 0x5d, 0x65, 0x15, 0x57, 0x20, 0x20, 0xdc, 0x56, 0xa0, 0xf6, 0x95, 0x03, 0x08, 0xdc, 0x6d, 0x95, 0x8b, 0x0e, 0xdb, 0xc8, 0xe6, 0x4d, 0xca, 0xbf, 0x5b, 0xd8, 0xf5, 0xc7, 0x00, 0x44, 0xf0, 0xaf, 0x39, 0xc3, 0x26, 0x55, 0x37, 0xfa, 0x42, 0xfe, 0x42, 0xd2, 0xc8, 0x0e, 0x32, 0x1f, 0x4c, 0xec, 0x0b, 0x1c, 0xba, 0xfe, 0x4b, 0x00, 0x1e, 0x25, 0xc7, 0x6d, 0xcf, 0x1b, 0x71, 0x38, 0x45, 0x3e, 0xbb, 0x39, 0xec, 0xef, 0xe9, 0xcf, 0x07, 0xa2, 0x28, 0x81, 0xfd, 0x6f, 0x10, 0x53, 0x50, 0xd1, 0xf3, 0xc3, 0xb2, 0x38, 0xd8, 0x2f, 0x2f, 0x59, 0x3e, 0x11, 0x03, 0xed, 0x6f, 0x37, 0xbf, 0x32, 0xdb, 0x5e, 0xce, 0xaa, 0x01, 0xc8, 0x57, 0x57, 0xaa, 0xf4, 0xf2, 0xa5, 0xbf, 0x7f, 0x49, 0xe3, 0x38, 0xf8, 0x2a, 0x0e, 0x36, 0xcd, 0x4c, 0xed, 0x5d, 0xcf, 0x00, 0x50, 0x8f, 0x02, 0x3e, 0x07, 0xc6, 0xc1, 0x2a, 0xad, 0xc0, 0x58, 0xf3, 0xa8, 0xd8, 0x0e, 0xcf, 0xc5, 0xc0, 0x4e, 0x5b, 0xc5, 0x4a, 0x64, 0xf1, 0x2c, 0x8f, 0x43, 0xbf, 0x9b, 0xb5, 0x90, 0x42, 0xa5, 0xa2, 0x25, 0x2e, 0xcc, 0x37, 0xf3, 0xad, 0x15, 0x46, 0x90, 0x9e, 0xf8, 0xa8, 0x9c, 0x11, 0xeb, 0x10, 0xb6, 0xd2, 0xa6, 0x30, 0x81, 0xef, 0x3d, 0x27, 0x1f, 0x43, 0xee, 0xd8, 0xf4, 0xb2, 0xac, 0x38, 0x4d, 0x0f, 0xb4, 0xc5, 0x52, 0xff, 0x92, 0x10, 0x36, 0x36, 0x30, 0xd8, 0x45, 0xa2, 0x24, 0x93, 0xef, 0x42, 0x4e, 0x26, 0xff, 0x2a, 0xe7, 0x55, 0x53, 0x5d, 0xdd, 0x3e, 0x4d, 0x46, 0xbf, 0x29, 0xc9, 0xa4, 0x5a, 0xb0, 0x6d, 0xf9, 0xd4, 0xb8, 0xd6, 0x11, 0xd1, 0x4d, 0x01, 0x4a, 0xd0, 0xb6, 0xf5, 0xe8, 0xaf, 0xe7, 0x81, 0x6e, 0x24, 0xac, 0xc7, 0x73, 0x5f, 0x1c, 0xd7, 0x10, 0x25, 0xe9, 0x1d, 0x45, 0x41, 0x98, 0x3f, 0xf7, 0x2a, 0xd8, 0xcb, 0x65, 0x6b, 0x2d, 0x40, 0xb9, 0x5b, 0x9d, 0x45, 0x2b, 0x41, 0x43, 0x4a, 0x51, 0x95, 0x40, 0xc4, 0x0d, 0xb6, 0xa1, 0x36, 0xa4, 0x35, 0x4c, 0x42, 0xe7, 0x0a, 0x31, 0xa1, 0xd6, 0xa6, 0x9c, 0xcd, 0xd9, 0x5f, 0xfa, 0xca, 0x0e, 0x0c, 0x57, 0x1e, 0x4c, 0xfc, 0x40, 0x8e, 0x3a, 0xd5, 0xd1, 0xbe, 0xfe, 0x59, 0x34, 0x34, 0xcc, 0xcb, 0x1d, 0xdd, 0x24, 0x22, 0xce, 0xc4, 0x20, 0xf0, 0x10, 0xe7, 0x7f, 0x5d, 0xb8, 0x1b, 0xd0, 0xf7, 0x46, 0xf7, 0x16, 0x52, 0x1e, 0x53, 0xc1, 0x41, 0x3d, 0xbc, 0xae, 0xee, 0xaa, 0x06, 0x46, 0xc8, 0xbb, 0x41, 0xa9, 0x24, 0xe8, 0x21, 0x0a, 0x34, 0x93, 0xc8, 0x46, 0x42, 0xcc, 0xa1, 0x2f, 0xe0, 0x26, 0xca, 0x5f, 0x1b, 0xff, 0xbe, 0x75, 0x26, 0xac, 0x34, 0xa8, 0xed, 0xe9, 0x81, 0x37, 0x4d, 0x31, 0xe6, 0xda, 0xce, 0x2a, 0x57, 0x68, 0xe4, 0x2f, 0xc5, 0x27, 0x00, 0xb3, 0x31, 0xb9, 0xef, 0x9c, 0xd9, 0x52, 0x41, 0x4c, 0x9d, 0x31, 0x03, 0x04, 0x5c, 0xf5, 0x2b, 0x06, 0xca, 0xf6, 0xc9, 0x1b, 0x11, 0xa5, 0x42, 0x09, 0x2c, 0x1d, 0xbf, 0x17, 0xb9, 0x1c, 0x40, 0x10, 0x14, 0x0d, 0xfc, 0xff, 0xef, 0x44, 0x1c, 0x40, 0xe4, 0xd5, 0xde, 0x22, 0xd4, 0x7f, 0x00, 0xa2, 0xd4, 0xfb, 0xdc, 0x97, 0xac, 0x30, 0x00, 0x19, 0xba, 0x2b, 0x23, 0xde, 0x2b, 0xb1, 0xfd, 0x58, 0xb7, 0x27, 0xd3, 0x9d, 0x3b, 0x1d, 0xbe, 0xf1, 0x1f, 0x5f, 0x11, 0x10, 0xd1, 0xfa, 0x0d, 0x75, 0xf5, 0x68, 0xd1, 0x11, 0xa4, 0x72, 0x3e, 0x43, 0xf1, 0x0d, 0x01, 0x2c, 0x57, 0x4d, 0x15, 0x19, 0xb8, 0x13, 0x18, 0xfd, 0x97, 0x69, 0xa6, 0xbd, 0x46, 0x49, 0x1d, 0xc3, 0x79, 0xc2, 0xda, 0x47, 0x39, 0x04, 0x0d, 0x7f, 0x51, 0xb2, 0x1d, 0xe8, 0x09, 0xeb, 0x39, 0xb6, 0xeb, 0xdd, 0x8b, 0x1f, 0x96, 0xf1, 0x09, 0x60, 0xe0, 0xc8, 0x40, 0x40, 0x4a, 0xd3, 0x2d, 0xed, 0x35, 0x26, 0x3b, 0x31, 0xe5, 0xec, 0xdc, 0x45, 0xfa, 0xda, 0x4c, 0x24, 0xd3, 0xdb, 0x70, 0xb4, 0x63, 0xa8, 0xb8, 0x0b, 0x22, 0x10, 0x20, 0xfa, 0xf0, 0xca, 0xec, 0x1a, 0xd5, 0x6a, 0xee, 0xd2, 0xc2, 0x4a, 0x3c, 0x43, 0xb8, 0xd1, 0xba, 0xe9, 0x81, 0x42, 0x3e, 0xf9, 0x3c, 0xf1, 0x56, 0xf2, 0x1b, 0xcb, 0xe5, 0xe8, 0x87, 0x56, 0x58, 0x4e, 0x75, 0xc6, 0xac, 0x14, 0xa5, 0xd1, 0x25, 0xf6, 0x2b, 0xf9, 0xe1, 0x28, 0x17, 0xbf, 0x56, 0x4a, 0xaf, 0x06, 0x09, 0xf3, 0xdf, 0xf7, 0x32, 0x14, 0x38, 0x17, 0x2c, 0x15, 0xcb, 0x2d, 0x4c, 0x10, 0xb3, 0x20, 0xb1, 0x27, 0x3a, 0xd1, 0xe8, 0x7f, 0x29, 0x57, 0xde, 0xfa, 0xe8, 0xd4, 0x1a, 0x62, 0x4f, 0xec, 0x4b, 0xc1, 0xb6, 0xf9, 0x6d, 0x39, 0xb1, 0xfc, 0x7c, 0x25, 0xf3, 0xf9, 0x42, 0x70, 0x4e, 0x4f, 0xce, 0xa8, 0x65, 0x0f, 0x1a, 0xff, 0x08, 0xb1, 0x41, 0xf0, 0x8e, 0xe6, 0xed, 0xc9, 0x9d, 0xf3, 0x9e, 0x44, 0xad, 0xbd, 0xa0, 0xb4, 0xac, 0xd9, 0xa3, 0x3a, 0xa4, 0x58, 0x7d, 0x24, 0xef, 0xc5, 0xdf, 0xdf, 0x05, 0x7e, 0xd3, 0xd8, 0x0e, 0xab, 0xc2, 0xc0, 0xa7, 0xef, 0x7f, 0x21, 0x13, 0x3c, 0x24, 0x04, 0x30, 0xdf, 0x61, 0x1a, 0x07, 0xdb, 0x1c, 0x29, 0x21, 0x25, 0xc3, 0x32, 0xeb, 0xdd, 0x99, 0xf9, 0xaf, 0x3a, 0x42, 0xfe, 0x17, 0xdf, 0x0c, 0x52, 0x26, 0xfa, 0x33, 0xba, 0x34, 0x20, 0x11, 0x2b, 0xf3, 0xd7, 0xe1, 0xb0, 0x76, 0x38, 0xfc, 0x30, 0x4b, 0x43, 0x05, 0x2a, 0xe8, 0x2a, 0xca, 0xc5, 0xf1, 0xe3, 0x32, 0x2c, 0x1a, 0x81, 0x0b, 0x47, 0x13, 0xab, 0xfc, 0x64, 0xb9, 0xc7, 0x40, 0x47, 0x10, 0x56, 0xc5, 0x1f, 0xa7, 0xd1, 0x4f, 0xd5, 0xa2, 0xf3, 0x78, 0xd0, 0xac, 0x33, 0x3a, 0xcb, 0xd0, 0x1b, 0x18, 0xb6, 0xfd, 0x02, 0xfe, 0x4d, 0x3c, 0x1b, 0x2a, 0xa2, 0x1a, 0xec, 0xb2, 0xd2, 0xeb, 0xa8, 0xf3, 0x75, 0xc1, 0xf6, 0xf5, 0xc6, 0x2e, 0x99, 0x54, 0xa6, 0xf9, 0xc1, 0xbd, 0x39, 0xe0, 0x20, 0xbf, 0x11, 0xd9, 0x47, 0x82, 0x11, 0x64, 0xa8, 0xe5, 0x13, 0x7f, 0xea, 0xca, 0xc4, 0x09, 0x43, 0x86, 0xb5, 0xba, 0xaa, 0x13, 0x1a, 0xa1, 0xf7, 0x14, 0x35, 0x29, 0xd9, 0xdc, 0xc1, 0xa2, 0xff, 0x40, 0x0e, 0x5b, 0x7f, 0xf8, 0xd8, 0x3a, 0x32, 0xfe, 0x99, 0x9e, 0x39, 0x9b, 0x58, 0x8b, 0xd6, 0xfc, 0x77, 0x17, 0x8e, 0x4f, 0x32, 0xaf, 0x54, 0x35, 0x13, 0xf3, 0x3e, 0x09, 0xd8, 0x19, 0x4a, 0xdd, 0x14, 0xf0, 0x87, 0xf6, 0x05, 0x05, 0x97, 0x9e, 0x1d, 0x12, 0x84, 0xa2, 0xa5, 0xbc, 0x43, 0x21, 0x6e, 0x6c, 0x3b, 0xa8, 0x8e, 0xb9, 0x84, 0x4c, 0xa7, 0x56, 0xed, 0xc5, 0x19, 0xd7, 0xe7, 0x1c, 0x9e, 0x8f, 0x52, 0x28, 0xed, 0x33, 0x15, 0x15, 0xb0, 0xc3, 0x28, 0x00, 0x0c, 0xfc, 0x19, 0x38, 0x25, 0xb1, 0xe8, 0xf2, 0xf9, 0xd7, 0xf3, 0x0f, 0xb1, 0x47, 0x48, 0x3b, 0x3d, 0x17, 0xda, 0x50, 0xa4, 0x13, 0x59, 0x35, 0x0e, 0xae, 0xa0, 0x14, 0x26, 0xe5, 0xfc, 0xfe, 0xd4, 0x25, 0xb0, 0x55, 0xc9, 0x19, 0x7f, 0x77, 0xb9, 0x2b, 0xe6, 0xb1, 0x48, 0x53, 0x3d, 0xac, 0xe3, 0x02, 0x76, 0x8f, 0xd8, 0x5f, 0x39, 0x0a, 0xba, 0x0f, 0x31, 0x31, 0x25, 0xc1, 0x2f, 0x36, 0xd2, 0x01, 0x39, 0xfa, 0x9f, 0xe2, 0xad, 0xe9, 0x32, 0xf8, 0x5c, 0xf1, 0x73, 0xd8, 0xb9, 0x4a, 0xfb, 0xd5, 0x01, 0xe5, 0x0b, 0x08, 0x7f, 0xc3, 0xf8, 0xf1, 0x2d, 0x54, 0x3c, 0xe5, 0xfb, 0x3a, 0xbc, 0xbc, 0xda, 0xe2, 0xc1, 0x2e, 0x19, 0x3d, 0x08, 0x1a, 0x71, 0x31, 0xcc, 0x7f, 0x34, 0x46, 0x57, 0xe2, 0xe9, 0x1f, 0x8e, 0xd6, 0x97, 0x0c, 0xee, 0x3a, 0xa4, 0x37, 0x33, 0xe4, 0x90, 0xd8, 0x0c, 0xea, 0xe8, 0xde, 0xe7, 0xf0, 0xc1, 0x11, 0xc5, 0xb9, 0xfc, 0x2a, 0x87, 0x7f, 0x9c, 0x57, 0x1d, 0xc1, 0xa2, 0xc9, 0x7a, 0x61, 0x67, 0x7a, 0x31, 0x35, 0x6a, 0x41, 0x0e, 0x2a, 0x06, 0xcb, 0x43, 0x2b, 0x4e, 0x3d, 0x69, 0x08, 0xf0, 0x2f, 0x3e, 0xb2, 0xb5, 0x9a, 0xc1, 0x51, 0x23, 0xfa, 0xae, 0x28, 0x48, 0x1a, 0xc7, 0x76, 0xe3, 0xc0, 0x2d, 0x0d, 0xcb, 0x9e, 0x17, 0xe0, 0xb1, 0x4b, 0xea, 0xb4, 0x1d, 0xcc, 0x50, 0xf9, 0xcd, 0xd3, 0xca, 0xf3, 0xd0, 0xd0, 0x0e, 0x19, 0xbf, 0x10, 0xd8, 0x62, 0xe2, 0x41, 0xf0, 0xb3, 0x1a, 0x19, 0x1f, 0x09, 0x22, 0xe7, 0x19, 0xac, 0xe1, 0x19, 0x50, 0xa9, 0x2d, 0x40, 0x28, 0x52, 0xc9, 0x02, 0x7f, 0xd7, 0xfe, 0xdc, 0x2b, 0x25, 0xba, 0x31, 0x48, 0xf2, 0x3a, 0xa5, 0x1c, 0x11, 0x02, 0x31, 0x10, 0x28, 0xbb, 0x17, 0x2d, 0xa8, 0xc0, 0xdf, 0xc8, 0xcc, 0x13, 0xc3, 0x0c, 0xd0, 0x34, 0xf8, 0xd2, 0xd8, 0xd3, 0x14, 0x62, 0x14, 0x1b, 0xa8, 0x23, 0x0c, 0x03, 0x9f, 0xa3, 0x81, 0x03, 0x0f, 0x46, 0x21, 0xbd, 0x2e, 0x5b, 0xc8, 0x94, 0xd8, 0xd5, 0x5d, 0x67, 0x52, 0x39, 0xf2, 0xcf, 0xec, 0xf7, 0xc7, 0xa7, 0x46, 0x84, 0xd5, 0x14, 0xd1, 0xd3, 0x99, 0x02, 0x7e, 0x50, 0xc9, 0x66, 0x52, 0x70, 0xf0, 0x43, 0x06, 0x18, 0x33, 0xc5, 0xb0, 0x29, 0x09, 0xe2, 0x6b, 0xdb, 0x57, 0xae, 0xd4, 0x2d, 0xc1, 0x01, 0xeb, 0x61, 0x89, 0x9e, 0xa0, 0xe8, 0xfb, 0xbf, 0xb1, 0x10, 0xc6, 0xa0, 0x05, 0x93, 0xcf, 0x17, 0x43, 0x11, 0x40, 0xe0, 0x29, 0xbf, 0x04, 0x40, 0x4f, 0xfb, 0xc2, 0xbf, 0x97, 0x43, 0x48, 0xe4, 0xdd, 0x72, 0xe6, 0xe0, 0xb1, 0x3f, 0x04, 0x81, 0x4a, 0x44, 0x1d, 0x3b, 0xff, 0xcf, 0xea, 0x14, 0xd9, 0x3b, 0xdf, 0x52, 0x0e, 0x33, 0xc7, 0x01, 0x22, 0xee, 0xff, 0xdb, 0xd6, 0x10, 0x65, 0xeb, 0xd5, 0xcf, 0x01, 0xda, 0x1c, 0xfe, 0x24, 0x7f, 0xef, 0xc6, 0xff, 0xb6, 0xed, 0xd2, 0xbe, 0x0c, 0x50, 0xe0, 0xa0, 0xd6, 0xe3, 0x19, 0xf0, 0x38, 0x1f, 0x3c, 0x0b, 0x0b, 0xa6, 0xe8, 0x48, 0x12, 0xca, 0x20, 0xe7, 0xcd, 0x0d, 0x0c, 0x0e, 0xe9, 0x07, 0x13, 0x6b, 0xcb, 0x4e, 0x3d, 0xa7, 0xa3, 0xb8, 0xb3, 0x17, 0xad, 0xa4, 0x2a, 0xf6, 0xf0, 0xf0, 0x3f, 0x3e, 0x0a, 0xd9, 0xaf, 0xb6, 0xaf, 0x15, 0x05, 0xf3, 0x2e, 0xde, 0xcc, 0x2e, 0xc5, 0xf2, 0xd8, 0x0b, 0x6e, 0xd4, 0x38, 0x5d, 0x52, 0xa6, 0x8d, 0x07, 0x40, 0xda, 0x7f, 0x34, 0x05, 0x9b, 0x90, 0x01, 0x02, 0x0c, 0xcf, 0x00, 0x60, 0x19, 0xfc, 0x3c, 0xaf, 0xd4, 0x2f, 0xa7, 0x5c, 0x4a, 0x03, 0x8a, 0x45, 0xce, 0xf6, 0x4d, 0xe5, 0x66, 0xea, 0xb2, 0xee, 0x89, 0x25, 0x30, 0x1a, 0x9e, 0x23, 0x35, 0x4d, 0xcf, 0x21, 0x31, 0xf3, 0x26, 0x2f, 0x19, 0xd4, 0x34, 0x02, 0xe1, 0xe2, 0x1f, 0x7f, 0xeb, 0x53, 0x64, 0x2e, 0x5d, 0xcf, 0xc4, 0xdd, 0x4d, 0x11, 0xb1, 0x9b, 0xa5, 0xa3, 0xb8, 0xc1, 0x4b, 0xd7, 0x6b, 0xdd, 0xad, 0xd0, 0xca, 0xc2, 0x98, 0x0e, 0xb0, 0xf6, 0xfa, 0xd8, 0x05, 0x8e, 0xfa, 0x4e, 0x56, 0x0b, 0xe3, 0x45, 0x66, 0xc2, 0x01, 0xe9, 0xa1, 0x4d, 0x7f, 0xe6, 0x57, 0x53, 0x0e, 0x41, 0x3d, 0x1a, 0x52, 0x53, 0x16, 0x91, 0x30, 0x5c, 0x51, 0x31, 0xd2, 0x56, 0x24, 0xf0, 0xfc, 0x57, 0xa8, 0xe1, 0x65, 0xf2, 0xb2, 0xc1, 0x4b, 0xbd, 0x05, 0x58, 0xfe, 0xf0, 0x1a, 0xe7, 0x4d, 0x41, 0xb7, 0xf2, 0x6f, 0x03, 0xcb, 0xfa, 0xcc, 0xc6, 0x2f, 0x6b, 0x0f, 0x58, 0x39, 0xaa, 0xc7, 0xfe, 0xf1, 0xea, 0xc4, 0xab, 0x12, 0x2a, 0x0b, 0x4b, 0xac, 0x2c, 0xad, 0x35, 0xe2, 0x7f, 0x5e, 0xc9, 0xf1, 0xcd, 0x1d, 0xc9, 0xe7, 0xb1, 0x3e, 0x53, 0x13, 0xe1, 0xa9, 0x9f, 0x97, 0xa8, 0xbe, 0x1e, 0x97, 0x37, 0x13, 0xe8, 0x2e, 0x4e, 0xb9, 0x10, 0x4d, 0x1f, 0xc8, 0x37, 0xb1, 0x19, 0x5f, 0x29, 0x1e, 0xc8, 0xec, 0x22, 0x9c, 0xf0, 0xd2, 0xc6, 0x98, 0xce, 0xcf, 0x04, 0x30, 0xd1, 0xe5, 0x90, 0x2a, 0xaf, 0xf1, 0xeb, 0xcc, 0x64, 0x30, 0x20, 0x72, 0xc4, 0x06, 0x27, 0xdb, 0xf4, 0x12, 0xa9, 0xf3, 0xef, 0xa5, 0x33, 0x97, 0xca, 0x2e, 0x26, 0x2c, 0x03, 0x81, 0xc1, 0xc6, 0xa8, 0xb6, 0xe3, 0x30, 0x52, 0x13, 0xb6, 0xc4, 0x60, 0x02, 0x07, 0xe3, 0xd1, 0x2a, 0xfa, 0xf6, 0xc6, 0xa9, 0xa8, 0x8e, 0x4a, 0x01, 0x06, 0x32, 0x21, 0xe0, 0x24, 0xf8, 0x9d, 0x44, 0xb5, };
